aturdays 69704
ï´į 149470
Ġsplit 6718
============ 10399
ãĥĬãĥ¼ 130334
_highlight 74546
åĪ¶ 43316
æľĿ 99816
ĠSquad 34707
Ġawaits 70804
Ġhadde 66334
ĉClose 82864
Typ 12834
åĲ¬åĲ¬ 114238
OMETRY 86042
æŀķå¤´ 115437
ophe 80409
Ġdisorder 19267
afil 42962
Ġperimeter 46342
æĪĲåĳĺåĽ½ 116588
Ġsockaddr 24169
Ġoperand 27213
ĠØ§ÙĦØ¨Ø±ÙĦÙħØ§ÙĨ 138579
ĠpÃ«r 93160
Ġcorpor 8368
ØªÙĨØ§ 126520
èĳ³ 120877
ĠFAMILY 87469
åİ»è¿ĩ 112955
_spawn 76026
ĠDISPLAY 52264
}while 84298
ĠPanel 18946
ĠSpiele 69462
.ro 30842
Ġreconstruction 42638
grab 58212
Ð»Ð¾Ð¶ÐµÐ½Ð¸Ñı 127662
å°ģéĶģ 111845
Ġà¸ļà¸²à¸Ĺ 129649
-notification 90724
ĠPoke 97626
ðŁĴ¶ 146959
Forever 90561
Ġretr 37731
Ġresembled 95758
Ġsophistic 23984
",( 44970
ä»Ĥ 119545
ĠSetValue 61293
èĮ¼ 120034
ãģĵãĤĮãģĭãĤī 132204
ĠTeuchos 85089
ĠsubTitle 91910
ĠNamen 84100
/read 69199
usted 27145
à¦Ļ 148571
íĩ´ 141008
ç¼¬ 121694
//}ĊĊ 55342
simulation 83772
ØµØ· 136264
-T 9285
çļĦä¸Ģç§į 104491
$type 63607
ĠFOUND 52559
çļĦéĩįè¦ģ 101945
ç¼¶ 119613
Accept 16646
ä¸ĵé¢ĺ 104321
ĠRF 22060
_build 20801
>c 56346
(''' 83434
ï³ī 145963
.Mon 52211
åŁºè°ĥ 116965
izon 16973
à¸Ĭà¸¹ 141190
ĠÃ¶ÄŁrenci 135992
ogg 16108
éĩ 13092
×¨×Ļ×© 142294
ĠØ§ÙĦØµÙģ 127753
ardware 37750
åµħ 123019
Ġ"*. 59128
ĠRepÃºblica 136962
Ġmole 34651
ÑģÐ»Ð¾Ð¶Ð½ 134691
Ġslic 21652
ĠÃº 17964
à¸²à¸Ħà¸¡ 128218
ummy 8574
ĠAlibaba 54364
signals 60615
Ġsacrificed 66804
Ġ'" 7127
ĠÐ¿ÑĢÐ°Ð²Ð¸ÑĤÐµÐ»ÑĮÑģÑĤÐ² 140728
æ£® 100739
Ġspared 73588
ÅĽci 18473
ĠPalmer 41116
Ġaller 47808
ĠRamsey 64546
Ġvinden 92651
æĪĳè§īå¾Ĺ 104288
peech 39586
è¯¦æĥħ 89656
ĠOccupy 73935
Ġhommes 52442
-initialized 68028
ĠJuni 80157
ĠMSI 67398
Ġdietary 33525
_HT 24105
ĠNumbers 34713
dim 12927
ãģ£ãģ¦ãĤĭ 134254
Ø¥Ø±Ø³Ø§ÙĦ 142376
åĲĪçĲĨçļĦ 105630
ëĩ¬ 148333
optic 93683
ĠStuart 43532
.G 1224
à¸Łà¸² 135749
kind 15314
Ð¾Ð²Ð°Ð½Ð¸Ñı 124964
'icon 84466
áĹŃ 149577
æī©å®¹ 117867
ĠĠĠĠĠĊ 10947
($( 21293
ĠIhnen 43860
@( 59404
Ä±nÄ± 37411
ãģ¾ãĤĭ 131536
UTILITY 47597
.userInteractionEnabled 90531
ìĪľ 130237
à¹ĥà¸«à¹īà¸Ħà¸¸à¸ĵ 137651
è©±ãĤĴ 133598
(parseFloat 94028
.mount 79934
<Category 54731
mom 60774
ãģ©ãĤĵãģ© 140951
éº»çĹ¹ 118839
Senate 86004
ð«¶ĩ 123017
éŃĶé¾Ļ 115983
ĠComet 98098
(tc 44415
Ġbrass 36038
ìł¹ 151020
ĠRamadan 81808
Ġdispatched 49151
ĠOffices 86538
Ġmelody 61584
ĠnháºŃt 131330
Ġstrncpy 57329
(Graph 63779
>Note 97729
è¯Ń 72881
Ġsogar 71765
ĠÐ¿Ð¾Ð»ÑĥÑĩÐµÐ½Ð¸Ñı 140368
isNull 66811
ĠINTEGER 30381
Ġbank 6073
.pres 43865
llum 5448
iedade 95166
ÙĢÙĢ 124285
å¼Ģè®¾ 105701
ĠGloria 74993
Ġcrumbling 88317
å¸¦æĿ¥ 100393
.vn 75157
ĠdidSelectRowAtIndexPath 95607
'utilisateur 85409
Stay 38102
_EQ 9168
(details 71379
letic 21973
ç§ĳåĪĽ 103406
ĉRegister 79096
æĻļ 99438
ÙħÙĲ 131339
employ 7668
todos 49188
_PENDING 56614
.Dock 17238
(adj 71522
âĢĸ 145813
_operation 32565
ðŁıĸ 146468
ĠInner 36356
Cmd 15613
Frameworks 89615
×ķ×ķ×Ļ 128796
ĠBengals 63829
è¿Ļåº§ 103092
ĠMiche 62700
é© 76080
ĠThumb 92256
(CH 82934
(Location 57979
ĠHS 33414
iáº¿c 135075
ragment 6017
FFECT 25050
æĬĶ 119657
ĠAudit 47646
ĠSatan 43351
ĠUnary 86951
Ġcháº¯n 132457
Ġcultivated 66066
ĉLL 93881
Ġcapitalize 52725
LinkedList 33915
ĠTWO 46258
ĠÑĢÐ°ÑģÐ¿ÑĢÐ¾ÑģÑĤÑĢÐ°Ð½ÐµÐ½ 140975
è¿ĲèĲ¥ 101087
ÅĹ 147127
éĩĳå±± 110734
imm 12543
æ¡Ħ 122598
è®¡åħ¥ 117286
']ĊĊ 15674
:req 69739
æģŃåĸľ 116394
Ġ×¢×ľ 126194
Ġfreund 77634
âłĢ 74719
åĳ¼åĴĮæµ© 114828
<>();čĊ 50721
[e 23013
_username 21588
çļĦçĲĨå¿µ 107136
oÄŁlu 129295
.my 12618
Ġsáº» 129958
ĠKare 95231
Army 91895
rail 75635
ãģĻ 17219
Ġdeletion 36066
åĽ¾çº¸ 112900
gf 45124
macro 32606
framework 3794
Ġexemption 44698
ĠThá»§ 130390
Ġ×Ļ×ķ×ĵ×¢×Ļ×Ŀ 136097
ition 680
è·Ŀç¦» 100764
æĪĲè´¥ 118730
AttributeValue 78554
éĻ³ 106894
ç¼ģ 120839
Ġnto 61818
(round 32356
_' 19333
:)Ċ 82630
ĠIni 73767
ontology 62233
stakes 95060
ĠGiuliani 88050
Ġdictionary 10997
ĠHep 60145
Mine 63495
å®ĮæĪĲäºĨ 105236
Ġelong 73495
æ¯ıäºº 108156
htub 65413
ĉĉĉĉĉĉĉĉĉĉĉ 10179
Ġpra 44003
Ġfaded 53334
å±Ĥåĩº 117275
formance 11795
çĻ¼çı¾ 105923
IFORM 65284
amba 41908
ãĥ© 31031
Ġtranslucent 84264
ÂĢÂ 42476
ç¤¼æĭľ 118163
tf 8935
ä¸ľåįĹäºļ 109033
ĠØ·Ø±ÙĬÙĤ 129072
raction 16199
Ġglobal 3644
_INSTALL 58486
-income 31097
ĠnÃ©t 135437
-quality 22092
APPED 71371
ï¯» 151196
":{Ċ 12602
è´¡ 101155
Ġclan 38462
ĠÑģÐ¾Ð²Ñģ 136844
Ġallocator 43655
æŁł 103565
ĠprotecciÃ³n 142502
ĠSkyl 93011
Ġphot 4503
à¹Ģà¸ŀà¸·à¹Īà¸Ń 126243
Launcher 91176
prints 25738
èĽ® 106156
ìĦ¬ 144032
Ġblackmail 87163
Ġsuburbs 46913
Ġ×©×Ĳ×ł×Ļ 129557
oth 8767
ä»ĸèĩªå·± 109066
ç¡ 31482
ëŀł 145811
Ġnegatives 74085
Ġreactionary 95138
sj 22910
æ³ķå¾ĭ 100376
ITTER 59837
//*[@ 37318
ãĥ´ãĤ¡ 139330
âĻ¥ 76709
æīĭ 44934
Ġcallbacks 26679
ĠÑĦÐ¾ÑĢÐ¼Ñĥ 139677
Ġ×©×Ĳ×ª 127598
IDS 25614
xEF 65769
åĥıä¸ª 114156
ĠParish 59247
ĠInjury 65076
Ð²Ð°ÑĢ 125626
ĠÙħØ¶ 133020
å°¤ä¸º 103653
ãģķãĤĮãģŁ 128512
_categorical 87455
reau 89949
lli 39976
.struct 72218
RY 11242
ðŁĶĥ 151402
Ø³Ø§ÙĩÙħ 135531
ĠNorse 93514
Ġindifferent 78908
_CL 6843
Ú· 146119
ĠArabs 57609
Ġsad 12421
Ġ×ķ×Ĳ×ł×Ļ 131426
ÑģÐ¿ÐµÑĪ 142747
ä¾§ 99772
Cooldown 80584
åŃĺæ´» 116624
ĠbÃły 135247
Radians 63846
_dur 82289
positories 17286
/sidebar 72907
ìĤ¬ìĿ´ 133414
ĠSelectListItem 95883
æĹ¢åı¯ä»¥ 118033
Ġtools 7375
ertino 90600
Ð¿ÑĢÐ¾Ð¼ÑĭÑĪÐ»ÐµÐ½Ð½ 138622
ĠClar 30081
Ġdashboard 26967
Ġfname 22548
ĠØ§ÙĦÙħØµØ¯Ø± 138026
æ¦Ĥè¿° 113608
ĠkÃ¼Ã§Ã¼k 132620
porate 60621
ĠFiesta 93803
ï¼īčĊ 91278
ðŁ¤ķ 148146
boxes 22204
Runnable 68836
alm 7673
place 2007
åĽĽåįģ 107035
æĶ¿åĬ¡æľįåĬ¡ 110321
âİ¢ 146939
ðŁĩ½ 146901
Ġsuperf 42017
ä¸įåħį 116857
ĠVoll 96382
uml 42231
(Paint 95274
onnement 89980
íĿĳ 144391
ĠNico 74035
Ġobedient 95656
éĤ»å±ħ 108680
.Threading 7501
çºªå§ĶçĽĳå§Ķ 118615
ÑĦÐ¾ÑĢ 133275
Ġdistributing 49712
Ġsuffering 15691
ĠtoReturn 81998
@endforeach 71581
.remove 4850
Hora 77097
ÙĤØ¶ 138472
ĠThurs 82685
Ġpushed 15391
Ġcoloured 57819
ĠQPushButton 52522
ished 3304
çĪĨæ¬¾ 115589
Jesus 53965
ç¶ľåĲĪ 117931
ĠReading 17769
ë¬½ 146643
Ġitaliane 98943
ScrollBar 55578
.'/'.$ 62170
éĿĽ 121703
Throws 44737
Ġ×ľ×Ĺ 125035
Ġ})Ċ 2751
Ġdg 40286
à¸Īà¸¸à¸Ķ 129397
à¸ļà¸Ĺ 126829
Ġ×Ĺ×ĵ×¨ 132836
ĠPis 90942
ä¼ı 100539
ĠCriminal 32736
ĠMechan 27801
ĠMcCain 35535
âĢ° 84625
åĪĨæĪĲ 109245
æ¡ł 122595
çª¦ 112595
.sleep 11118
è¯¥åİ¿ 112725
ì¹Ĭ 148001
æ·±åľ³ 101119
Ġfamilial 97204
Ġ×Ĳ×ķ×Ķ×ĳ×Ļ×Ŀ 143361
ĠØ§ÙĦØ¥Ø±ÙĩØ§Ø¨ 134562
.edges 44354
erdings 68627
ĠPlate 30303
à¹Ħà¸ŀ 136934
åĶ¯æľī 109042
Ġèĭ 83226
<a 9312
December 32146
Namespace 22699
Ġmountains 23501
Ġjapon 79397
edo 65881
.Abs 33255
(as 36951
èĬ£ 122196
Ġklar 72734
ETHOD 8758
Ġwinner 13632
×ĺ×Ļ×ĳ 127499
è¿ĩå¹´ 107954
ising 3791
ĠPenny 52915
å¼ºçĥĪçļĦ 107450
-xs 9941
ĠsourceMapping 44584
Ġstret 26185
èº«å¿ĥåģ¥åº· 118186
NAS 34496
ĠBonnie 73195
outes 5495
ĠBye 89325
ĠMoses 40948
#![ 85366
Ġruss 63563
ĠMcMaster 99042
ĠwÅĽ 136781
ĠHait 42402
ê¦Ĵ 147469
redient 14342
ĠRally 58700
Dim 10344
opc 67858
.getWriter 58386
INF 36409
çİ¯æ°§ 116514
_UClass 67089
Ġaccol 85543
é²Ĥ 121006
ð«ĵ¯ 122822
Ġsewing 51219
ĠFlames 72197
ĠBoulder 55643
cors 53972
Fe 6123
Ġlua 20357
chunk 25979
æĶ¶åĽŀ 108948
ãĤĴä¸İãģĪ 136323
åħ¨ä½ĵ 102270
ĠBJ 86499
Comparable 62635
Ġwatchers 86572
åŃ¦å®¶ 108026
Ã¼lÃ¼ 135740
ë°ľ 126835
WI 60195
PI 1893
åŁ½ 120582
ÃŃc 29415
HomeAsUp 89638
iginal 11040
éļıæľº 107898
ĉanim 93502
ĠPaginator 93064
Ø´Ø¯ 130697
Ġmedicine 15712
uyáº¿n 125283
>čĊčĊčĊ 54680
×ł×Ķ 123973
åĳ¶ 119873
è´¹çĶ¨ 103966
.LocalDate 75401
]]= 71383
×ł×ķ×¡×¢ 140606
Ø·ÙĪÙĦ 133236
Ġ------- 60158
è´§æºĲ 114462
eda 13830
/// 2575
loy 1989
æĻ« 123004
Ġconcentrate 36355
Ġ==> 32296
>User 81766
ĠgÅĤÃ³w 143811
Ġwired 52121
ĠÄĲÃ´ng 130215
ĠForg 69575
subtype 77241
Ġ[Ċ 2278
Ġpurchased 14733
ĠFriends 22508
ĠÐ½Ð°Ð³ÑĢÑĥÐ· 143961
Ġ×Ĺ×ķ×©×ĳ 131856
ä¸įå¤Ł 104222
ĠÐ¡ÐµÐ¹ÑĩÐ°Ñģ 140644
readonly 22569
acid 57056
à¹Ģà¸¥à¹Īà¸Ļ 125488
åŀł 120028
_lead 87052
èĪĴéĢĤçļĦ 111941
ĠÙħØ¬ÙħÙĪØ¹Ø© 131175
});čĊ 16240
."\ 42943
INDEX 44331
(remove 67709
isset 4888
EGA 87996
ÐºÐ°Ñħ 127001
å±ķçİ°äºĨ 111358
)âĢĿ 98282
listen 36337
.ObjectMapper 89408
ä¸ºä¹ĭ 110624
pond 3511
åľį 108703
mock 16712
ä¸Ģå¤© 100729
ĉcolumn 51661
íŁ¬ 150281
ĉvoid 4304
ĉvolatile 31119
ÐºÐ» 126087
à¸Ļà¸±à¹Īà¸Ļà¹Ģà¸Ńà¸ĩ 140492
arra 79030
ĉdraw 39710
(Cs 72636
Ġappearance 11094
Ġtechnician 53511
.reset 13857
åĲĦå¤§ 104960
.dev 21523
-The 65006
Ġpermitted 15129
ateg 1328
%@", 44633
_complex 41522
.cf 75619
ÐµÐ²Ð° 130518
ĉnew 8638
ĉColor 57814
ĠØ§ÙĦÙģÙĦ 127565
Assertions 90206
naires 68563
)/ 5620
Ġ×Ķ×Ľ×¨ 132780
ĠÙħØ± 128707
åĪĽç«ĭ 106685
7 22
revolution 95722
ĠMary 10244
Ġconstant 6783
ìĥĺ 144486
Ġ(![ 65831
ĠEconomics 34200
ĠOnline 8105
ĠSv 63605
mmm 48886
ĠISS 36396
readcrumbs 24466
!.ĊĊ 98527
ÑĤÐµÐº 131904
æ¯Ķçī¹ 109389
ðŁĺª 146264
-policy 66420
ĠGoddess 60685
Ġgenerous 27671
á¸ħ 147203
_Order 53267
_WIFI 75470
ßļ 150404
LayoutConstraint 44940
ĠIndividual 29340
ĠOil 15526
Ġ{ĊĊ 1476
éģ¿åħį 101153
ĠDemocratic 11396
Ġrehab 26778
å¤įæĿĤ 102181
æĬĢèĥ½åŁ¹è®Ń 118605
å¯¹æŃ¤ 104270
.crypto 44123
íĵĲ 150113
Ġdragging 42376
.Set 4202
propri 70521
Ġyabanc 139322
QString 22355
Odd 67389
å·´èı² 117268
bearing 87350
Ġcháº¿ 128751
ĠCitizens 39896
Ġloro 47093
_LANGUAGE 59990
.Global 27381
à¸ģà¸¥à¹Īà¸Ńà¸ĩ 139154
Ġlarge 3460
Ġqty 43185
istrates 93100
Ġconseguir 76859
Ġminlength 77929
oftware 73105
×¢×ĵ 125085
åıªæľīä¸Ģä¸ª 110382
(check 24077
ĠBasement 92043
/os 57892
æĺİæĹ¥ 111566
ðŁĶī 148395
ĠÙĥØ§ÙģØ© 133550
-loss 76301
à¸ļà¸£à¸´à¸©à¸± 129049
é¦ĸé¢Ĩ 118710
ĠdÃ¨s 86351
Ġuseful 5390
inion 36300
Ġintrigued 68018
Ġphotons 88135
ĠïĤ 68298
ãģ£ãģ¦ 75847
ĠÐ¿ÑģÐ¸Ñħ 140582
.addChild 31769
mpr 78373
çĭ¬ä¸ĢæĹłäºĮ 115023
ãĦ¥ 148818
Yu 89410
ä½łåľ¨ 107740
_el 21602
odes 2539
.AddTransient 98003
ãĥĽãĥĨ 131929
stalk 89749
erti 34113
?>/ 97222
ãĪ¬ 150253
éĦ° 119281
à¸£à¸ģ 132603
()+ 17140
ĠKai 50610
Ġupward 39772
:N 37694
relevant 97573
à¸ªà¸ĩà¸Ħà¸£à¸²à¸¡ 142025
éĤ£ä¸Ģ 103254
æĻª 123005
Ġami 51727
ĠPiper 69807
-state 20733
ĠstandardUserDefaults 55989
åħ¨å±Ģ 109894
.PLL 88734
ULA 58069
ìĺ¤ëĬĶ 139097
YZ 40209
YSTICK 95796
ĠVuex 88339
Ġ×ĳ×ł×ķ×©×Ĳ 130886
ANC 26175
Ġupgraded 32524
å¤§èĤ¡ä¸ľ 110160
ë¦¿ 144231
codegen 95859
HM 52148
ä»¥ä¸Ĭ 70589
æĭŁå®ļ 115373
æ¹« 121048
è¯¸èĳĽäº® 112101
.getById 72075
ĠDana 46613
Ġadministrator 28093
aget 84063
RefPtr 76629
Ġimplant 45360
.loss 46043
å¢ļ 123303
search 1836
sequent 71357
Ġcarries 23377
Ġenumerate 13252
Ġlá»Ńa 136337
Ġtapping 52628
åħ¥åºĵ 117787
å£°èªī 115375
Ġrins 96039
Mono 58946
MODEL 60437
Initialize 9928
ĠGilles 76124
ĠPerforming 69648
ĠSanders 16859
Ġconservation 28611
è¿Ļäºĭ 110367
Ġhopes 16005
ĠmiÄĻdzyn 143666
Ã¡r 41254
Ġdispon 25604
æĹłäººæľº 106828
ĠJacqueline 98664
.same 97503
/**/*. 52565
(UINT 50075
ulen 94211
Ġseated 46313
ë²Ļ 145196
ĠBlogger 87675
Ġinjected 40672
Ġencounters 33906
ANTS 37125
Â°C 30937
Ġmanifold 72829
Ġmisconduct 39994
éĿ¶ 112073
ĠQuando 91666
×¨×ķ×¦×Ķ 141849
ĠmutableListOf 76253
Ġspect 9431
åįļä¸» 118484
Ġspider 34354
){}Ċ 56073
hp 21197
×Ĺ×ŀ 138491
æĬ½å¥ĸ 118367
Ġwould 1035
ĠListen 32149
é£İéĽ¨ 107834
ĠUITapGestureRecognizer 79885
ĠdziaÅĤalnoÅĽci 137684
aines 32803
é£İè²Į 110990
æĬ¢éĻ© 110939
ĠFabric 36307
ĠKar 13225
graded 23343
ç¢§æ¡ĤåĽŃ 113996
×ŀ×Ĵ×ķ 132582
bill 29642
gregated 93040
ØŃØ§ÙĨ 138640
locales 80232
Ġkaum 99025
ĠProvincial 79695
ĠVO 43652
cone 58082
Ġprol 28420
_spaces 67883
Ġprick 88700
Like 12949
estado 22016
Ġcolumna 75299
ĠBeautiful 19490
(html 22895
waters 98659
ÙĪÙĨØ© 134470
çĭ³ 120459
.Country 62413
ç¬¦åĲĪ 101137
ĠreuseIdentifier 52660
_get 3062
ĠDb 11988
ĠCPU 13940
×¨×ķ×ª 128828
Ġturno 97867
ĉput 45062
\xb 47759
(one 51067
íıī 126742
actually 73028
warts 63056
(rep 75156
ĠJM 82052
ĠLud 45170
ĠaddButton 88196
ĠÙĦÙĦØºØ§ 140537
à¸ģà¸° 132016
Ø¨Ø±ÙĬØ·Ø§ÙĨÙĬØ§ 143628
ĠNoSuchElementException 94449
Ġearth 9393
è®°è½½ 105636
Ġ.ĊĊ 6762
Ġexpensive 11392
(unittest 37178
-ring 75929
Ġengineers 24198
ĠmÃ¡ximo 75617
eref 43970
ĠLantern 67492
ãģĹãģı 126403
éĴļ 120143
Ġvolts 86067
><!-- 13301
å¼¼ 121076
-tab 27411
ĠĊĊĊ 14731
VR 18800
]+)/ 75014
åĥĩ 123215
èĤ¤èī² 115010
Ġpourrait 91115
åĢ¥ 120439
×¤×ķ×ª 126330
æ¯įåħ¬åı¸ 114584
Ġfirms 18809
é²ľèī³ 115444
ì¡ĭ 146888
íĽł 147456
.SetText 92259
pipeline 51258
ç«¥è¯Ŀ 110289
ĠWORLD 50891
Ġbulund 135100
Ġlecture 30578
Ġliber 33829
ĠkaÃ§ 130268
PrototypeOf 46758
ç»ıçĲĨ 100249
æľīå¤ļä¹Ī 115745
Phones 63087
Visual 9594
ĠonFinish 96905
_ASC 84593
_HI 72536
åĢĻ 99383
ardy 90574
ĠReporting 46693
.Ch 6353
ffff 7238
Ġallowing 10693
å»ºçŃĳ 99893
è¶Ĭè¿ĩ 117418
ister 1571
particle 41979
ĠTransit 45855
neas 97257
ĠíĻľìļ© 140969
æ¯ħ 101511
Ġexplosive 33050
ĠExxon 76027
ì¼Ĳ 145727
iosity 32179
.openConnection 87122
ĠLaravel 64206
_Real 93306
,Integer 61198
KeyCode 75433
omorphic 69917
(Model 26442
estr 15111
Ġfenced 83393
åĪº 100253
Ñ£ 144361
aycast 51287
ØªØ³Ùħ 139253
à¹Ģà¸¥à¸µà¹ī 133110
(Current 35888
oproject 61351
Å¼u 127548
ðŁįª 146336
ĠĠĠĠĠĠĠĠĠĠĠĠĠĠĠĠĠĠĠĠĠĊ 55447
Ð°Ð¹ÑĤÐµ 131646
">čĊ 4424
.AutoScaleDimensions 31373
è¿ĺæľī 100626
Ġpulver 70155
æµ®çİ° 114927
å®¢æĪ·æıĲä¾Ľ 108064
lovak 86110
å¹º 119538
ØŃÙİ 132078
Ġprefers 53964
à¸Ńà¸²à¸Ĺ 136306
ĠRobbins 87215
ĠStub 66611
Ġengaging 22570
cae 97987
innerHTML 15609
ðŁĲ· 146284
ĠPerception 85850
Ġopc 37027
entrant 69558
_Component 80760
rome 6648
commend 30528
á»Ļc 124510
ðŁıĺ 148104
ðĿĵħ 148935
vido 76543
×ª×Ļ×Ĳ 139134
åĬłå¿«åıĳå±ķ 114748
ĠAxes 89704
ĠBoost 33407
ĠSqlCommand 21354
Ġsevered 83350
Ġlenses 34957
ĠÑĤÐµÑħÐ½Ð¾Ð»Ð¾Ð³ 142650
ð¬¹¼ 123000
Ġtit 8142
(done 34232
Ġ'; 27825
applicant 90264
uen 10316
-hop 48719
ãĨį 138875
=y 29368
ĠLocker 93978
ĠRp 68108
.assertAlmostEqual 87600
inds 8673
åĮĸçļĦ 105302
ä¼łæŁĵ 103536
ĠSpatial 74697
(chunk 41577
Ġznaj 67715
Ġdescripcion 55690
busters 75518
_State 24773
ĠĠĠĠĠĠĠĠĠĠĠĠĠĠĠĠĠĠĠĠĠĠĠĠĠĠĠĠĠĠĠĠĠĠĠĠĠĠĠĠĠĠĠĠĠĠĠĠĠĠĠĠĠĠĠĠĠĠĠĠĠĠĠĠĠĠĠĠĠĠĠ 22335
Ġmunic 136332
IMATE 89552
_bp 57106
ĠthÃ©p 142842
Ġupgrade 13910
è¨İ 103535
ĠMature 42159
Ġoverpower 97787
Ġsued 41084
People 15919
ĠJohann 87864
Ġà¸ĸà¹īà¸² 129190
çīĪæĿĥå£°æĺİ 111052
èĲ¼ 120880
çıĪ 120015
à¸Ĥà¸±à¸ļà¸£à¸ĸ 142966
ðŁĮı 146295
ıè¿° 44834
ĠbÃ© 89451
rose 24847
ĠStreets 65518
Other 11409
Protected 66915
Ġsentencing 50517
aigned 69969
"<? 60347
ä¸įéĢĤ 108684
Ġyup 75446
ĠmaxWidth 39617
operators 32838
ĠComponents 34085
ä¸įåĥħ 113214
áĢ 24831
ĠSUB 16140
ĠPins 69250
ĠTamb 58126
Ġoccupying 71180
Ġsniper 62282
_UP 14055
Ġhostages 87603
'D 27705
ĠâĸĪ 32588
ìŀ¥ìķłìĿ¸ 143228
Ġcylinders 74321
.begin 6848
Ð¿ÐµÑĩÐ°ÑĤ 132799
Recognition 61292
å±ķåĩº 110083
å¼¹ 100080
++){čĊ 23571
Ġdon 1513
ĠĊĠĠĊ 48426
million 58313
åħ¶å®ŀæĺ¯ 105875
ĠgenÃ§ 132425
Â¯Â¯ 38195
\čĊ 38178
Ð¸Ð²Ð°ÐµÑĤÑģÑı 140784
à¸ªà¸¥à¹ĩà¸Ń 143717
å·¡æŁ¥ 109270
èĲ½å®ŀ 100392
ohana 84342
_Offset 85697
that 9033
å¨±ä¹Ĳå¹³åı° 116952
ëĿķ 147342
Ġabsent 27211
ĠÙĦÙħØ§ 127301
Ġweiber 70349
Ġë¹Ħ 73986
Ø³Ø¹ÙĬØ¯ 134605
ãĤµ 59768
å®Įç¾İçļĦ 107766
Ġelevation 26163
ãĤĪãĤĬãĤĤ 130464
(prev 31781
(edge 39789
-seven 78025
/down 79067
_and 8378
ĠRom 11774
.g 1302
_ter 72493
åĢ© 109250
.PERMISSION 58855
power 13175
ãģŁãģıãģªãģĦ 140345
Armor 62882
ðĿĶİ 151322
Ġincompet 53920
Ġmike 97669
_picker 68230
ickest 69752
"path 70688
sanitize 65704
ÏĤ 45642
æ²® 103857
èĺ¼ 123776
é«¢ 123138
Ġfilib 95686
pile 12192
Ä±nd 54498
Ġmars 47349
Ġstains 62463
'|| 71257
(struct 6163
Broken 90526
IFIED 27320
(Content 79352
åį«æĺŁ 105635
endencies 37331
çĿĢä»ĸ 108913
ĠGdk 75540
ĠmieÄĩ 133131
ĠÙĬÙĪØ¬Ø¯ 134842
emie 96146
ĠTom 8364
éĹ² 100836
Ø¬Ø¯ 125510
Ġhinter 71968
Cannot 17444
åŀ¯ 122401
è²ĵ 115842
"""Ċ 7129
Ø³ÙĬØ§Ø³ 127393
Ġsympath 32718
esson 71405
æ½®æµģ 106294
ĠTale 54348
ITHER 63260
ðŁĨĥ 151378
ĠDetected 87950
etermination 81037
åĻ» 121769
Safety 73037
ĠÐ¿ÑĢÐ°Ð²Ð¾ 132092
ç¥ŀå·ŀ 113842
uating 53543
ÙĭØ§ 127837
.BorderStyle 28781
.fxml 52860
ĠDá»± 133784
âĪĪ 145690
Ġthou 33123
'ai 33055
Ġä¸į 86009
çĹĥ 122684
à·ĥ 146757
Ġpháº§n 128463
ĠOrdered 39581
Ġdelete 3698
ĠGlory 58161
å¤ªå¤§ 102791
_occ 57291
_should 43378
Ø®ÙĦØ§ 142532
Ġpermutations 71949
Ġmh 72317
Ð»Ð¾Ð½ 135428
Ã¡rio 19774
Ġtamanho 69238
åģ¥åº·ç®¡çĲĨ 116930
åıªå¥½ 106170
çģ¿ 103322
ÑĦÑĤ 132910
×Ļ×Ĺ×ķ×ĵ 131804
_RDWR 66266
ÑĢÐ¾ 124120
ĠJesse 39171
Ġsamen 81457
ebra 50213
Ġdetection 17984
ä¸Ģå¼ł 104298
ĠTop 6909
Ġscav 82650
Ġscreenplay 84775
à¹Ģà¸§ 124323
owe 23733
åĳ¼åĴĮ 114827
åķĨä¼ļ 107210
ä¹Łå°Ĩ 105195
ä¸įåºĶ 109706
ĠviewHolder 43473
constants 15763
.SelectedIndexChanged 77089
æĹŃ 105495
Coins 69602
âķı 150692
Ġ×Ĳ×Ļ×ł×Ŀ 135479
ĠBilder 56580
declaring 64565
ToSelector 60081
uali 51166
ĠViktor 76016
ĠAtlas 42343
qus 61504
ĠReady 30982
Ġinnings 35000
references 35909
ß 155
Ġitemprop 69173
Ġì°¾ìķĦ 138038
èĨĻ 121798
.expand 27737
selectorMethod 89312
Ġsecretly 41739
ĠUrg 85486
áİ» 149427
Ð¿Ð¾Ð´ 127287
>x 28257
íĽĵ 149986
ĠEffects 29146
ĠGHz 51305
Ġdeepen 91692
]čĊ 6114
Ġrailroad 50476
Ð±ÐµÑĢ 126562
________ 3979
.directory 59937
æ£ĭçīĮ 101386
è¿Ļè¾ĪåŃĲ 117002
Ġassembling 80659
ìıŁ 144471
á´· 150101
ĠÐ·Ð°Ð±Ð¾Ð»ÐµÐ²Ð°Ð½Ð¸Ñı 140338
Ġentity 5387
æ¤° 110674
Ġspiele 91855
Ð½Ð¸Ð¹ 128642
_min 7260
åŃ¦æľ¯ 104380
_COMM 14025
Ġsmoking 19578
ĠDEAL 25491
ÃĹĊĊ 78988
ä´Ļ 123711
Ġballistic 59533
æĹ¢çĦ¶ 104550
ĊĠĠĠĠĠĠĠĠĊĠĠĠĠĠĠĠĠĊ 79133
openh 42070
èī²ç´ł 114581
Ġhorn 20631
,status 61618
ç«Ļç«ĭ 115113
é»Ħå±± 111209
Ġshowers 51802
ëŀŃ 144710
.LOG 36202
ð¬ĻĤ 123419
ä¸»æµģ 105276
ĠObservableCollection 44464
ĠBuckingham 94911
ĠExport 22191
.Adapter 34190
leg 1937
Ġtha 48488
(description 29833
çľĭä¼¼ 106390
ðĿĲĬ 149260
ëĿ¼ëıĦ 127937
Ġvielleicht 83835
æĿĸ 111709
Ġshootings 43761
éķ¶ 103872
åĢķ 122657
Ġ"/";Ċ 79480
ĠHang 40775
ĠcustomerId 67505
_bottom 25473
_Construct 41126
Ġvent 10378
A 32
Standing 93642
ä¹ĭåīįçļĦ 108355
ëĶª 144722
tering 59385
ocked 67385
ßł 147846
(pages 98722
(). 1005
-data 13945
æľ¬æľįåĭĻ 105346
elsea 23278
.break 56077
== 418
presso 34460
ĠKo 29317
LEC 84130
RAFT 53958
/my 34198
åı¦ 99628
Ġartistic 31592
cription 1453
xdb 54555
è¿ĩåī© 115291
<AM 33434
edelta 46854
Ġnonce 39676
Bad 17082
è¯´åĪ°è¿ĻéĩĮ 113687
åĨħéĥ¨æİ§åĪ¶ 116923
åĩ½ 105512
unidad 82730
ulis 64030
ĉprev 50728
disposing 19286
ĠFever 83901
salt 42226
ustrial 46379
ĠItemStack 38115
EmailAddress 79986
Ã¼b 130977
ìĬĮ 149769
æ«Ĩ 123604
ĠCyril 94705
.Upload 86597
/DD 81961
wed 67367
ĠcrÃ©ation 80839
Ġduring 2337
Ġvary 13289
ĠPokemon 27731
yme 30118
Ġwins 14816
identity 16912
ĠMajor 17121
Ġ×ŀ×ĵ×ķ×ĳ×¨ 130410
_reaction 96631
Ġefforts 8869
à¹Ħà¸«à¸Ļ 129124
[q 41093
ĠÙĦØ¥ 131425
ĠåŃĹ 73312
-touch 38926
.sync 30712
ĠQStringLiteral 70697
ĠFerm 98262
Ġ#{@ 54628
.Multiline 68099
Specifies 94527
aravel 61653
Ġgenerators 43063
-has 45898
/en 13606
ToList 15324
åĽ½çİĭ 107894
ĠEcc 80660
ĠYears 22315
.favorite 91464
ãĢĤĊĊ 3407
ðŁİĴ 148708
_extent 70102
ä»¥ä¹łè¿ĳå¹³ 116726
è¾¾ 93488
ĠBarbara 31107
nicos 84430
×ª×Ĺ×ķ×© 128164
ìĭ´ 150984
ĠPunch 53175
():ĊĊ 39974
åŁºäºİ 104210
Ñ± 147386
æľīåħ³éĥ¨éĹ¨ 105467
classnames 55113
Ġìĥģíĥľ 137619
www 2136
à¸Ńà¸¢ 123891
Ġ&$ 26950
_vertex 26611
Ġslain 69186
á»Ķ 143798
è¯´å®ŀè¯Ŀ 111730
-office 81127
çļĦèĦ¸ 107288
Ġ", 3670
Outcome 73380
ĉTEST 54635
Ú¸ 150393
ĠØ£Ùİ 131422
âĪµ 145972
Ġokre 138166
Ġpak 38014
çĬĬ 120972
ĠØ£Ø¹ÙĦÙĨ 134120
Ġquasi 47744
ÙħÙĤØ§Ø±ÙĨØ© 139286
Created 11694
aims 25676
ĠpÃ³ 127397
Ġtravels 34192
Welcome 13936
ĠChildren 15044
Ġsurround 8995
ĠradioButton 75420
ä¹ĭç±»çļĦ 106896
æ¸¸æĪıä»£ 115881
Ġcompanies 5110
Ġdeleg 19854
Ġfinns 73065
çĪ±äºº 110656
åįļçī©é¦Ĩ 104646
âĶĬ 146218
è¯ķçĤ¹å·¥ä½ľ 118828
Ġdun 49016
Ġzx 71322
Ġtitulo 51063
gÃªncia 132439
âĮ« 148602
æ¯ĹéĤ» 117305
-->ĊĊ 37859
wow 57454
æ¯Ĥ 121117
Ġ) 873
æ°ĳèĪª 110804
ATABASE 19878
Loading 8578
è¦½ 101748
umbling 41632
apa 18321
ĠVector 4196
ĠHyde 64339
à¸ķà¹Īà¸Ńà¹Ħà¸Ľ 130373
pts 12754
Ġneb 80867
ðĿĳī 145875
TargetException 72152
ä¼ģä¸ļ 99304
ì±¤ 145914
Ġrepmat 79339
ĉcp 52018
Ġyours 18316
ÃŃg 70337
heads 35810
à¸Īà¸µà¸Ļ 130754
ĠFormat 15042
-kind 59706
.Gson 52175
addy 22478
uchsia 73391
åĬłæĭ¿ 105273
ĠThree 14513
-dropdown 43949
ĠFixed 20149
owaÅĤa 132233
Ġgolf 19120
Ġmodeled 61553
Ġnota 44038
/commons 91567
ï¾ľ 144812
èµĦæľ¬ä¸»ä¹ī 116339
Ġmicrosoft 79896
-lib 38641
Ġsmall 2613
âĻ¢ 145666
Desk 69521
çĶļèĩ³è¿ĺ 112062
á¸ĥ 151535
ĠClassics 72315
çŁŃè§Ĩé¢ĳ 109829
.PO 84973
dictions 52390
(style 37283
Ø±ÙĪÙħ 141125
ĠRory 82321
ĠSergeant 64544
_distribution 41465
Ġprojet 45394
liche 20005
Ġlicensing 27406
ĠIll 12516
èµĦè´¨ 104572
Ġaxle 72100
à¹Ģà¸¥ 123964
ï¥¬ 151130
ĠVáºŃy 136241
Ġrekl 99080
fÃ©rence 135387
ventus 66460
æĬķèµĦåŁºéĩĳ 114650
ĠBarnett 85320
_List 27104
_EXTENSIONS 97058
.GetCurrentMethod 90288
ufficient 26683
å°±æ²¡ 109537
éħº 123324
ĠRev 10107
ĠchÆ°a 128651
>');čĊ 78916
Ġconclus 82982
Ġquarter 8338
æ¨ĵ 107843
Ġstunt 59025
plots 32797
ĠØ¯ÙĪØ± 129366
Ġhebben 39758
mak 48562
ĠopiniÃ³n 139421
ĉdev 27302
ĠReactive 39822
_else 62628
ĠBay 9154
ĠÐ´ÑĥÑħ 141787
ĠLoginComponent 59754
è¨ļ 120484
sam 45996
å¢ĥå¤ĸ 105183
Ġcemetery 58304
Ø£Ø³Øª 136857
æĽľ 119131
ĠForgotten 94447
ĠLands 37423
Ġë¦¬ 56983
(gp 93008
):?>Ċ 94792
Ø´Ø§ 129637
iad 62944
(cfg 28272
å·¥ç¨ĭå»ºè®¾ 107627
×Ĺ×ķ×ĳ×Ķ 134394
ï¨ļ 151155
ToObject 81541
ĠPrincip 44529
ĠëıĻ 126322
Ġ////////// 93155
ITEM 11969
SS 1220
_Account 86855
ðĿĴĨ 147462
ðŁĵĥ 147772
reation 26453
.router 22125
urr 8027
ĠrefreshToken 74541
à¸¡à¸²à¸ģà¸¡à¸²à¸¢ 130731
æĬķæľº 111677
è« 99643
ĠForces 29400
ĠÐ·Ð°Ð±Ð¾Ð» 140336
ìĮī 146429
ĠresultSet 41973
Ġcelebrities 39401
åħįè´£å£°æĺİ 108218
Ġillness 17125
ç¥Īç¥· 114686
ĠØ§ÙĦØ®Ø§Ùħ 139306
Stub 33838
=T 60461
Ġtotal 2790
""Ċ 89262
,$_ 69583
ï·¼ 146952
×ŀ×Ļ×ł×Ļ×Ŀ 135574
_offsets 56924
akÄ±ÅŁ 138676
å¼ķãģ£è¶ĬãģĹ 142809
caff 23778
Ġcripp 70008
Ġwidely 13570
uncios 62156
ĠPremiership 96888
Ġcompilers 87075
ç¬¬ä¸īèĬĤ 118714
Ġnail 30995
ĠKorea 11862
xFD 63012
jun 57681
à°Ĩ 150429
onChange 51485
ç®ķ 119473
');?>Ċ 60198
ĠBennett 38286
Ġprosperous 70307
ĠâĩĴ 58703
íĸ¤ 149802
æĸ°åįİç¤¾ 106013
ìł± 147304
ĠMETHOD 32397
@media 83963
ĠdeviceId 64757
Ġirreversible 92194
ĠØ±ÙĤÙħ 131273
åĲĪä¼Ļ 103182
Ġpenal 46326
Ġcine 79752
ç»ĵæĻ¶ 115396
Editing 20202
Ø¶ÙĦ 137126
âĢľThe 13978
æĿľåħ°çī¹ 117609
Ġinvalidate 39943
Ġautre 46738
Ġeuch 65295
rian 7266
Ġshocked 26620
ĠÑģÐ´ÐµÐ»Ð°ÑĤÑĮ 130965
ĠÐ½Ð¸ 126491
.E 5142
parseFloat 64872
ĠToo 24599
åĢ§ 122662
çĥ© 120489
Ġdevuelve 95567
Digit 36420
ÙħØºØ±Ø¨ 143405
éĿ¢æĿ¡ 116443
onnen 98103
_pdata 96825
×¨×Ĳ×ķ 129736
ä½ĵç³»å»ºè®¾ 106810
dock 77055
ĠAussie 86463
PE 1740
Ġremarkable 22804
.tex 57895
-vesm 93973
ongs 13181
ron 2248
.cfg 30481
ç§°èµŀ 111121
tÃ© 128294
à¸ģà¸ģ 136250
èĽ² 120925
Ġintimidation 69059
Ø¨ØŃ 124449
END 4689
ĠØ£Ø®Ø±Ùī 129446
(resolve 43234
++){ĊĊ 72648
Ġlá»ĭch 128717
ĠĠĠĠĠĠĠĠĠĠĠĠĠĠĠĠĠĠ 4293
.OneToOne 95829
æľīé»ŀ 114863
cbd 90749
ĠÑģÑĤÐ¾ 125868
,f 17077
oyal 47102
ĉStart 65999
Ġst 357
ØªØ£Ø³ÙĬ 142878
ĠÙĪØ¶Ø¹ 130519
ĠStringSplitOptions 79876
(mContext 38441
ðŁĶĪ 149930
Ġsponsor 24434
oredProcedure 45517
æĪĳåı¯ä»¥ 109944
Ġthough 3498
Account 7365
ĠPLUGIN 82507
insn 85817
ĠGrandma 97968
ä¹ĹãĤĬ 135267
à¸¥à¸· 135008
å¿ħçĦ¶ 102309
ç²¾è£ħ 115819
ĠDA 24543
ÐºÑģÐ¸ 136910
urahan 95422
å¤§å¤§æıĲé«ĺ 116929
æĲį 103531
èģ¿ 119646
âĢĻÃ© 32677
×¦ 123798
eÄŁi 129230
Autoresizing 47286
.Cast 65239
æŃĩ 106408
èĲ½åĪ° 117412
ortion 25886
leground 64766
redi 64599
Ġsum 2629
-paper 76719
áĥĲ 145395
ĠNSLayoutConstraint 59582
.label 2909
Ġ"." 22760
ÙĤØª 125638
undler 85365
Ġnacional 57967
.theme 29451
ĠumoÅ¼liw 141255
ĠKidd 97138
ĠKingston 62469
ĠíļĮìĽĲ 133662
PlainText 73248
Ġaviation 45530
Ġorganisation 21424
áĲĿ 150524
Ġtam 25476
Ġ×Ľ×Ĳ×©×¨ 129004
Ġ'\" 84849
_trim 70025
ĠCharacters 44516
QUI 11979
Ġchildren 2841
"]: 57721
aterial 2180
åįİä¸½ 109427
Ġinvokevirtual 69825
æķĻå¸« 117815
.Cl 21610
tection 39141
queeze 19340
Ġ×Ĳ×Ĺ×¨×ķ×ª 135113
ĠTut 65963
ificent 36143
èµŀæī¬ 118253
à¸ŀà¸£à¸µà¹Ģà¸¡à¸µà¸¢à¸£à¹Į 141988
-color 7889
ÐµÑĤÑĮ 125274
Ġnao 64273
à¹ģà¸ķ 126791
Ø³ÙĪØ¯ 134063
çºµæ·± 117530
calculate 35597
.getRuntime 92615
Coach 72694
æĬĬæĪĳ 106488
-HT 99085
à´Ł 149537
przedsiÄĻbiorst 142625
åıĹè®¿èĢħ 118048
Basically 70803
osas 86809
å©Ĩå©Ĩ 107602
Ġ×Ľ×¢×ª 138384
Ġfase 69712
patches 96878
Ġnome 17129
Ġintentionally 36204
Ġirre 24870
ĠBoyd 62621
çªģåĩºéĹ®é¢ĺ 110862
áĲŀ 150525
ĠÐ¼Ð¸Ð»Ð»Ð¸ 139641
Cap 12903
ĠCheney 80246
×Ļ×ľ×ĵ 126497
Ġtwitch 59413
ĠExcellent 36766
Ġtopped 39801
âĿĬ 146123
ĠUP 11982
SECRET 65310
illance 18832
SA 7778
ç¿¯ 123593
Ġbigotry 76746
Ġpap 25298
æĦ§ 103521
ĠComic 39963
%' 27238
Ġ×Ķ×ĵ×ķ 132121
.inventory 37034
.getBody 63108
äººæ°ĳåĮ»éĻ¢ 108306
nof 26654
ĠFILE 11837
Ġindication 27039
ĠØ§ÙĦÙħØ®ØªÙĦÙģ 136972
çĶ¨æĪ·åĲį 59105
éħµ 103183
åıĳçĶŁçļĦ 106806
æ§ľ 123320
Rio 88046
èī¯æĢ§ 110690
ĠMIL 41809
Ġaudiences 29894
ĠÄĳÃ¡o 136335
åĩºåĩ» 112816
ACL 55393
Ã¼gen 82040
è¿ĩçļĦ 105565
ĠERC 56052
arias 47113
Matrix 6689
Ġkin 23938
à¸Ľà¸£à¸¶à¸ģà¸©à¸² 141095
.BorderSide 91161
ĠUIScrollView 73652
à¸§à¸±à¸Ĵà¸Ļà¸ĺà¸£à¸£à¸¡ 139521
ï¼ĮâĢľ 41505
Ġroman 47776
å°ĳçĪ· 115497
Ġ"*", 79936
éĿ¢åĲĳ 104548
Ġhardness 70903
Ġoczy 138959
æĪĲéĥ½ 104051
Each 4854
Democrats 74717
[indexPath 32494
ÃĴ 144086
ĠUN 6643
duration 17021
á¡Į 151422
é¹´ 123778
.getDouble 57561
à¹Ģà¸£à¸·à¹Īà¸Ńà¸ĩà¸Ļà¸µà¹ī 136834
ì¼Ģ 136133
âĶı 145762
We 1654
_prim 87419
ĠMalta 60650
çīµæĮĤ 118445
Ġcaching 47430
Ġreligions 43130
BASH 87663
ä¸ĥåįģ 110473
Ġindices 14937
Ġconce 19669
ibe 23549
Ġpaginate 81974
anyak 50303
à¸§à¸Ķ 125210
ĠSetUp 92101
-white 15858
intval 57602
ucer 59396
è±¹ 106986
è¦ºå¾Ĺ 106142
èĲ¥åħ»ä»·åĢ¼ 118576
ĠEmerson 79454
ĠContext 9608
ĠdoGet 56704
Ġiphone 42448
ĠFAC 84303
ä¸¤å¼ł 114420
Ġlifted 29731
(fill 81654
è¢«è¯Ħä¸º 107367
ĠÐ´Ð»Ð¸ÑĤÐµÐ»ÑĮÐ½ 142192
åĨĽ 99292
Ġarise 30789
æīĢä»¥åľ¨ 106325
upportInitialize 12682
×¡×ķ×¨ 126942
×ª×¦×ķ×Ĵ 142059
Ġinsure 69532
å»¶éķ¿ 106195
ĠNested 71742
å®ļäºĨ 101659
scanner 67941
ĠStone 14302
+'/'+ 70654
æĺł 100261
è¤ 99382
è£ħéħįå¼ı 116344
_bad 34199
.guard 73529
Gap 12868
Ġ\` 95547
ĠÐ¿Ð» 125717
åĭĸ 120647
æ¨Ĭ 110020
çĽ¸å½ĵäºİ 106153
ĠFee 40458
ĠTCHAR 67069
Ġtrafficking 33463
ReadOnly 20914
ĠTool 13474
å¹¶ä¸įæĦıåĳ³ 116752
é©± 101422
ĠMÃ¶ 48682
-stream 38723
ĠÑĢÐµÐ°Ð»ÑĮÐ½Ð¾ 139395
âŀ» 148448
ĠÄį 32802
==$ 59297
à¸ŀà¸±à¸Ĵ 126770
Ç£ 148946
ĠAure 88215
åİŁæĿ¥æĺ¯ 110709
ĠzusÃ¤tzlich 136249
esseract 82538
inspect 82054
Ġ×ĳ×ŀ×§×¨×Ķ 133664
Ġaddressing 27020
ĠwyjÄħ 135759
æĶ¹æĪĲ 116893
Ġ(!$ 11378
ç¾ħ 106956
Ġoriginated 43753
éĥĳå·ŀ 104839
_TCP 50614
ĠSebast 93713
Ġmanufact 5844
-paying 88723
ç¼Ĩ 102931
ĠLucas 31003
ÙĤÙĬÙħ 130077
ã¥ 122890
æĸ°äº¬ 112904
Ð¿Ð¾Ð½ 127461
verts 28163
ÙĬÙĪ 125113
Ġlol 27409
æķ´æ²» 101327
course 11856
ĠHomepage 67435
ä½Ĩ 77288
ĉcli 86448
Ġfarms 33224
ĠBounty 94189
scrollTop 46724
æĤĸ 119056
ç¯ 82798
åĩºéĻ¢ 113873
íĦĶ 151071
IR 2801
_atts 95770
_variable 14635
zn 20308
à¹Ħà¸ģà¹Ī 138376
çĦĨ 122878
×ŀ×ŀ 140240
Ë§ 148563
=image 74655
props 4761
çİ°ä»» 109215
"]/ 45058
PIX 62792
_TARGET 29299
ÙģØ§Ø¹ 126119
à¸Ħà¹īà¸² 124652
ĠOd 24560
Ġtaxpayers 34648
ĠÑģÐ²ÑıÐ· 126032
.global 21932
ĠFlight 26577
SX 90488
Ġtrustee 75766
ä¸Ģä¼ļ 102947
å¹²éĥ¨éĺŁä¼į 118659
Ġdzi 51026
Ġkz 80955
.delegate 19339
.keySet 39905
mÃ¼ 130187
Intent 11536
*R 69666
ĠKw 64362
:M 65207
fy 30595
×Ļ×Ŀ 123797
Pane 8255
ĠhWnd 58579
_decoder 49843
Ġthere 1052
ĠÐ¼Ð¸ÐºÑĢÐ¾ 135190
Ġactivated 21985
æľı 122506
Ġkáº¿t 128403
aida 35444
×©×ł×ª×Ļ 139002
ãĪ° 148021
(torch 36876
inosaur 88147
(state 8390
;display 85565
Ġkeeps 13598
ĠPike 68729
.dateTimePicker 77005
agraph 9216
rÃŃ 129358
MLS 49976
éĽĨç»ĵ 112012
æ¿ĭ 123581
.Is 4506
Clause 28482
åĵªæĢķ 103014
éĻĲåº¦ 103304
ï»ı 145276
biz 54673
Ġ''. 42863
ĠDefinition 19709
iras 50085
Ġinterchange 51263
eresa 37586
portion 15388
çİĥ 123787
stackoverflow 42035
/application 33032
Ġcep 62090
ä»ĬçĶŁ 116561
á»±a 126599
æĤ¬å´ĸ 115637
Ġstreamed 73245
Season 34860
":[{Ċ 58018
tensorflow 84282
ĠĊĊ 4710
ä¸ĭè½½ 62189
Ġcanceled 33446
.MaximizeBox 89307
ØªØ±ÙĪ 127585
pageNum 81297
Ð²ÐµÑī 141957
ĠÐ°Ð¼ÐµÑĢÐ¸Ðº 142079
Tr 1282
ĠMilano 74867
Ġfoul 39784
ĠPist 44496
Ġ#@ 91027
ĠPinterest 25051
Ġdecrement 60832
Projection 46321
ĠØ§ÙĦØ³ÙĨØ© 136272
åĩºæĿ¥äºĨ 107673
ĠParty 8554
(next 16913
ser 799
âĢĿĊĊ 7511
Ġlugar 33900
Ġreceber 90145
éĥ¤ 120171
ocus 3384
}& 24778
éļ¶å±ŀ 118980
ðŁĵ¤ 148270
stdClass 78848
ĠFormer 32500
à¸¢à¸´à¸ĩ 135162
à¸ļà¸±à¸ĩ 140928
Ġopera 42416
(nums 21096
Ġpatient 8720
Ġpops 47600
))čĊčĊ 30991
ÑĪÐ¸Ñħ 125349
×ĳ×Ĺ 124553
rename 51058
Born 58104
Ġthought 3381
é²Ľ 121476
Ġtorment 72670
checkpoint 69134
Ġpr 548
rong 14347
_text 4326
Ġlots 10077
Ġtá»Ļc 133952
_IN 2158
axios 21325
ë¤Ĥ 151482
ĠMae 64814
ķãĤĵ 84567
cats 37452
ĉfriend 51103
unner 54415
ĠPhysiology 94846
NSSet 92892
ĠFOOT 80037
ĠØ£ÙģØ±ÙĬÙĤÙĬØ§ 142925
ĠÙĨÙĩØ§Ø¦ÙĬ 142565
Ġgimm 74773
iais 56467
å¾Īå¼º 106647
äºĮåįģäºĶ 117920
ĠAssoc 92376
(fb 94034
æ¯Ķè¼ĥ 106663
ëĲĺ 64119
ĠtanÄ± 129409
ëĽĶ 150913
double 4331
ĠProcessor 43377
ä¸ªäº¤æĺĵ 115602
-ft 93624
è§Ģ 102489
(primary 73259
ï¥« 151129
ĠCanadiens 87593
_New 39582
opot 88390
ĠOBS 75860
ftar 46201
ĠquÃªn 135967
Ø®Ø¯ÙħØ© 130113
èģļåĲĪ 110480
ĠKurdistan 78944
Ġequipos 91852
Ġclockwise 65670
Ġrev 5772
mars 94926
ĠString 923
ĠÅļwiat 142466
×ķ×ķ×ĵ 139375
Exporter 88025
Ø®ÙĬØµ 137723
æĶ¯éĺŁ 108187
ĠNOR 69088
ï»ħ 145964
å¾Īéķ¿ 110302
Ġtrack 3754
ĠImperial 29913
.ease 62654
âļ¥ 149678
[temp 53775
ĠHuckabee 96084
è§ĨåĬĽ 112067
ĠUE 29988
ëĶ 66498
STD 28486
votes 37835
áĥ© 147747
ĠÃ¶z 125952
mirror 73225
æ¥® 120884
ĠImmutableList 92255
_peng 65424
ï³ķ 149860
ïºĴ 144332
-i 17600
Ġdeals 12506
Ġconnexion 72776
åľ¨é¦Ļæ¸¯ 108995
Ġcaveat 86051
æµ·åįĹ 104345
-process 50094
É³ 146588
æ¯½ 120971
æľºåĻ¨äºº 104354
<Player 44302
_cases 41427
ãĤ¹ãĥĶ 143015
ĠBieber 76220
ãģ¸ 126263
Ġ[]* 29838
Ġpi 8938
éĥ½æľī 101103
Recommend 67644
,cv 81316
ä¸ĵä¸ļä»İäºĭ 118419
FAULT 5291
ĠMaterialPageRoute 55267
éģĹäº§ 103145
someone 89479
éļĲ 99707
ë§Īëĭ¤ 139328
âĢŁ 144910
èĤ¡å¸Ĥ 104908
Ġlf 58080
ê¿į 146211
Ġsent 3208
Ġcollaborations 82563
iffs 18852
Task 6262
&_ 85047
Ġshown 6839
Ġnháº¯n 142045
æº§ 119250
forme 75601
typedef 5286
ÐµÐ³Ð¾ 46195
ĉREG 83433
ĠErica 91835
ĠRight 10083
CONNECT 39521
spent 94364
Ġpist 23875
Ð½ÑĥÐ» 132117
ĠcreateTime 53149
åĬĥ 101837
Robin 76671
_image 4954
æ¼ı 100515
_rhs 64537
.getTag 59279
à¸Ńà¸¢à¸²à¸ģ 125630
_Output 65062
xAE 89728
åĸĿ 100399
ĠQuá»ĳc 128494
Ġvendor 20728
ĠÑģÐ¿Ð¸ÑģÐºÐ° 97533
à¸Ĭ 48120
é³ľ 122073
æ²Ľ 103725
_SSL 45437
(Cl 43644
personal 29612
éĢīçĶ¨ 106423
Ġprevent 5358
)Ċ 340
Ġrental 18645
RenderWindow 74710
¢åįķ 43720
äºĮçº¿åŁİå¸Ĥ 118054
åı¯çĸĳ 118910
ðĿĴĥ 149873
.xhtml 88366
ĠCURLOPT 22244
Ġimpulse 48867
ĠpodrÃ¡ 132608
ĠÃ§ 18086
isms 13664
åħĪéĶĭ 107310
Ġphá»¥ 128877
Ġsolitary 57129
ĠÐ´ÑĢÑĥÐ· 143438
å¿ĺè®°äºĨ 113713
à¹Ĥà¸Ĭà¸§à¹Į 137955
ãĤĨãģ£ãģıãĤĬ 142034
å¼Ģå¥ĸç»ĵæŀľ 112260
DXVECTOR 89033
æĻ¯è±¡ 108047
*cos 55123
Ġ============================================================== 70662
av 402
ĠMechanics 76823
ĠNOAA 85648
Ġsáº¯p 134406
ÐµÐºÑĤÐ¸Ð² 127342
ĠtÃ©rmino 139413
Ġ×Ķ×¢×¡×§ 131713
_SIM 30920
ĠSpecialty 81514
QUIRES 86788
è¯´å®Į 107484
èľľèľĤ 116626
ĠØ¬ÙħÙĬÙĦ 138518
æĪĺåıĭ 115578
/m 3183
ABILITY 5735
éĿĴå°ĳå¹´ 104846
ĠAva 91657
ĠmapStateToProps 30190
"To 65120
ĠSor 29531
ĠLit 38251
ĠVig 57101
Ctx 23684
ĠCheer 92631
ĠRNA 40114
Ġcomplaints 21171
Ġmigrant 51116
Ġ×Ĳ×Ļ×ª×ķ 139431
äºĮåŃĹ 115127
Ġcond 9756
Ġintroduction 16800
çĽ®åīįæŃ£åľ¨ 116710
ê³Ļ 150854
"]))Ċ 44735
Unless 35587
rule 12937
_pixel 29760
.Buffered 78732
.Bitmap 36181
Ġantiqu 60286
Ð´Ð¾Ð² 132584
ĠsÄ±nÄ±f 135965
reetings 56517
Washington 38131
ĠgdyÅ¼ 139578
/view 22489
ĠÐ¾ÑĤÐ»Ð¸ÑĩÐ° 136867
Ġplaque 60364
Ļ¶ 103895
èĨĿçĽĸ 115267
ĉeditor 78077
æĶ»åĩ»åĬĽ 116738
ĠSPEED 73843
Ġbriefed 85765
Ġox 18952
êĴª 147357
.Mult 53515
ĠtravÃ©s 49352
glomer 75046
å¦ĺ 122266
ĠLoft 83154
ð«« 123182
.security 15214
ĠSERVER 39664
æİĩ 120583
ĠØ§ÙĦÙģÙĦØ³Ø·ÙĬÙĨÙĬØ© 136987
Ġreflect 8708
ĠSubmission 58734
Ġvibes 89849
Ġmisunder 37626
Ġvoor 12931
getConfig 52536
Ġdetergent 90134
å¯¼æ¼Ķ 104727
à¸łà¸²à¸ŀà¸¢à¸Ļ 138221
ĠForget 60228
Ġfavored 45503
Ġcandid 5685
Energy 32675
âŀ¦ 146371
Ġmeaning 7290
ÙĥØ§ØªØ¨ 132072
apur 99040
è²§ 117150
odb 16853
Ġvag 17314
Ġê²ĥëıĦ 137638
æĪ¿äº§ 104521
áħ¨ 149549
é¦ĸçĽ¸ 114925
ØªÙĤØ§Ø± 139644
ViewPager 94855
.inline 29416
.cur 24809
åĨĽåĽ¢ 111792
ĠCSL 71656
ĠTRANS 47533
ä½İæ¸© 109878
_sim 18314
Ġfilme 41080
ĠíķĺëĤĺ 125703
âĵĴ 144691
ĠPositioned 89981
()==" 85368
ĉInt 57152
.Adam 69118
ìĹ½ 144467
ÑģÐ¸Ð´ 136063
Ã¼nÃ¼ 129782
ician 12452
Úĥ 149402
_disconnect 67972
Ġdepartments 25215
_TAGS 84182
_DIALOG 42802
Marshal 55438
abor 4324
RING 85926
è´¸ 99637
ïŃ¼ 147609
Ġprefs 36013
âŀļ 148772
à¸£à¸§à¸¡ 126279
äººåĵ¡ 108476
ĠSixth 66977
.springboot 74173
èĨ½ 119116
ĠEntityManager 48767
Discover 50002
ðŁĶĤ 151401
èĩ§ 121397
×Ļ×¤×ķ×ľ 125922
Ġjust 1101
ungalow 83919
à¸Ńà¸ĩ 123824
[List 51994
OLS 40263
ä¹Łå¼Ģå§ĭ 110462
Ġshove 84615
åĲ 7158
+") 57224
Ġdolls 63781
ìĪ´ 146315
Ġsidelined 97948
è¯ģçĽĳä¼ļ 106672
éĢĸ 120462
ĠAmong 21658
ĠDome 68445
ĠJu 21671
ç¬ĭ 111313
å½ĵåį³ 115041
ð«ĽŃ 123065
ĠbÃ¢t 142620
Elf 75832
ĠÑģÐ²Ð¾Ð±Ð¾Ð´ 134388
diÄŁinde 139902
AsStringAsync 86717
_jobs 37247
Ġjpeg 54566
ĠsortOrder 78651
çĶŁæ´»ä¹łæĥ¯ 114781
é¹ģ 120895
ĠQuint 50699
anything 72154
.Conn 50422
Ġguess 7942
ce 346
Vect 92801
âĮĺ 146095
ĠmÃ¹a 130567
_within 72385
('( 69963
Ġconocer 59240
Ġexhausting 78853
Ġresidents 10826
Ġdiplomatic 33516
peri 31736
gresql 81624
(rgb 66323
adb 39591
jets 73904
×¦×ĳ 124461
Ġ)ĊĊĊ 25571
fb 10798
clazz 82914
IMARY 26020
p 79
Ð¾Ð»Ð¾Ð³Ð¸Ð¸ 138445
ÙĪÙĦØ© 125138
áĺĹ 150096
æĸ°äººçİ©å®¶ 117294
ÙĥÙĬ 124811
ĉThread 37057
ĠDev 6040
Ġdrowned 73895
unei 95223
Ð¼Ñĭ 125153
Ġreacting 73050
ëĺł 149744
æ¨¡å¼ı 100144
Ĺ 245
<Book 58037
Ġadministered 36918
Ġteil 77414
reta 65698
æĭ½ 113676
audio 16736
laÅŁma 127697
-syntax 82779
$b 67284
ĠĠĠĠĠĠĠĠĠĠĠĊ 19011
è´¾ 104780
ĠgetContentPane 53576
ĠÐ¼ÑıÐ³ 141225
èĻ½çĦ¶ 103925
mk 24452
Ġgew 22539
à¸ªà¸³à¸Ħ 126680
"bytes 70591
Tensor 25336
ĠGujar 55631
Ġqueues 48094
ĠØ§ÙĦØ®ÙĬ 134326
Ġ[],Ċ 10239
Ġconsolidate 73321
ĠRELATED 84347
Ġhassle 46847
.getData 20990
Ġundert 18649
_artist 66840
/android 51825
æıĲéĹ® 107666
DB 3506
BundleOrNil 85315
à¹Ĥà¸Ľ 135163
ĠPackaging 69788
ĠÃ§ek 126428
_sv 76808
ĠTower 21938
*sin 55684
ĠÐ¼Ð¾Ð¹ 139732
Acceler 58182
ĠxÆ°a 139518
EVER 16793
promise 49550
Ġhemp 40963
agnitude 34715
Ġspotlight 36873
Ġinsanely 89366
æīĺ 99829
Ġpolicy 4842
Recent 25140
Ġfaux 50427
ðŁį¬ 147920
_cell 16648
__':Ċ 16179
-associated 74868
ĠManage 42650
ĠìĿ 16751
mov 29961
circle 25857
Operating 58147
_rad 39764
Most 13319
Ġcá»©ng 137142
ä¹Ŀå¤§ 114363
Ġmitigation 65760
Ġprosperity 43102
ĠiÃ§inde 128972
ĠthÃŃch 128745
-your 52146
èĭ±æĸĩ 105205
éĩįéĩį 108468
ĉfn 40095
×©×¨×ķ×ª 127701
/ws 91021
del 9588
ĠATI 78776
ĠPatient 28924
ĠUnique 28650
Ġbounced 69804
ä¸ĭåĳ¨ 113767
Pos 4859
Ġdrew 23554
-ci 62384
.Fire 71305
ted 6565
ymes 78709
ĠFootball 20761
çķ¥æľī 112743
///< 43726
çļĦçĶŁæ´» 104103
ĠMuss 89714
Ġraspberry 93702
ĠsetTimeout 14258
Ġwasher 52892
ØªÙĦ 129376
åŃ¤ç«ĭ 118606
Ġworst 11785
ĠÃ¡rea 54171
Ð°Ð¿ÑĢÐ¸Ð¼ÐµÑĢ 127414
ĉrows 68438
Ġconting 38539
Ġmaintenant 73599
ĠUIView 17620
å°ıé¢Ŀè´·æ¬¾ 118907
Ġstrict 7304
returned 77591
Ġreference 5785
ĠHÃ£y 132547
_console 51724
Mad 37036
æĦıç¾© 115725
ĠÄĳá»īnh 140868
rios 27851
Ġcondoms 78875
ĠÑĤÐµÐ°ÑĤ 142633
ðĿĲ¸ 146699
ĠHÃłng 137327
ĠTelegram 42963
Ġevenly 41047
Ã¨rent 140142
çĳ¶ 106103
ĠVenue 68360
_pot 57952
Ġoccurred 10017
åĶ¤ 101005
Ġuniformly 77809
Ġprepaid 82676
uem 69847
Matches 42470
Ġstripping 66670
uddled 84101
MediaPlayer 70381
cu 20199
Ð´Ð°Ð² 126724
ĠKepler 97743
Ġproj 21333
ãĥķãĤ¡ãĤ¤ãĥ« 142022
ĠAUTHORS 26688
ĠÃľniversitesi 133698
iÄŁi 127625
tempts 33272
uname 40379
.getLabel 88348
pluck 58496
Ġ×¨×ĳ×ķ×ª 131674
èģĮä¸ļæĬĢèĥ½ 115632
Ġaccept 4193
ãģ¦ãģĬãĤĬãģ¾ãģĻ 141424
ĠARM 30486
ä¸ĭä¸Ģç¯ĩ 117367
plaint 31297
ðŁ¥ĸ 148732
ÙĬÙĦØ§ 133301
ĠhotÃ©is 143286
à¹Ĥà¸¥à¸ģ 126397
å©¿ 119447
ĠBew 37210
=username 67421
pery 61379
ðŁĵ¸ 145345
ãĤ±ãĥ¼ãĤŃ 142732
Ġinvented 35492
_ERR 9875
Ġregularization 87294
ĠxAxis 61185
Éĥ 148278
åĽŀåĪ° 102112
ĠGloss 66042
ÑģÑĤÐ² 20200
Ġbis 14840
ĠNarrative 95721
å¤§å¹ħæıĲåįĩ 115350
Ġsilver 14961
éĩĩæļĸ 117296
Ġsleeper 82547
è·ŁæĪĳ 106400
ð¬ľ 103904
ancestor 66878
fit 6276
matplotlib 80427
à¹Ģà¸«à¸¡à¸²à¸° 127642
.BL 32481
åºĩ 119320
Ġparent 2681
íĤ¬ 143651
-Ray 78404
ĠPeriod 25492
ĠQuite 57695
æııè¿° 53481
æĽ¦ 110147
ĠVolkswagen 50839
Ġabort 11326
eÃ±a 131080
ĠGMT 24488
ĠScaling 88001
Ġtráº£i 132465
.")]Ċ 51507
cret 4423
Ġphá»ĳ 128974
ĠpostData 54183
Ġyii 20788
invoices 88596
éķ·ãģĦ 137029
ðŁĵİ 146709
Buy 17482
ðĿĶ¨ 149155
itate 19652
ĠÐ¿Ð¾Ð»ÑĥÑĩ 51332
Ġreg 1217
URRENCY 57292
Ġno 902
åįķåĵģ 114658
ĠcorazÃ³n 140766
alers 55785
ĠT 350
"},čĊ 45426
Deck 39368
BUM 83467
Ġrepet 26330
Ãºmeros 63918
dragon 55419
gra 31950
Ġinsurance 8113
Ġbolt 31842
èīī 123217
ĠAbuse 45684
æľĢä½İ 104549
_least 88716
å¸ĥæĭī 111359
ge 709
ĠChampionships 47754
_PARAM 12073
ĠSurface 26963
ç· 99977
"){čĊ 50938
æĸ°èµĽåŃ£ 118107
×ŀ×ł×Ļ 129320
-edge 47348
andon 11037
æ¶Īå¤± 102505
ĠSnape 85684
æŃ¤åīį 104470
ĠCalder 75300
Ġkeen 26891
.vocab 77457
ĠRand 23963
ĠIAM 88186
Ġcaramel 58711
INavigation 44111
ĠEra 47588
Ġliken 54285
IÅŀ 140950
ĠDOM 18051
Ġconced 37730
äººéĻħåħ³ç³» 116391
ê³ 22009
ĠTypeError 25030
Ġexecut 23494
Ġ×Ķ×Ļ×Ķ×ķ×ĵ×Ļ 134294
Benefits 84323
\Product 49875
æķĻè®Ń 107472
ĠITER 87816
cluded 10181
ĠÑįÐ»ÐµÐºÑĤÑĢÐ¾ 131229
ãģ¨ãģĦãģĨãģĵãģ¨ 126444
âĤĭ 148051
èĨľ 101232
ï¤ħ 151496
itel 56643
Ġpull 6815
èĪ¾ 123052
Towards 91359
Ġusize 22301
Ġvariance 32273
åĹĶ 121185
sw 2280
ste 5342
æīĢæľīäººéĥ½ 109677
ĠAcid 49134
IDEOS 88919
(INVOKE 94456
.strategy 74537
Ġ|= 8662
ĠÐ¿Ð¾Ð»ÑĥÑĩÐ¸ÑĤÑĮ 132693
åıĳçĹħçİĩ 116382
redients 10377
ĠpieniÄħd 142638
.Complete 93573
Ġattorneys 30334
é¡Į 101396
ãģĭãģ£ãģŁãģ§ãģĻ 135918
routeProvider 83660
ì° 88541
adr 14666
ĠIhrer 75077
interested 83698
sky 26684
æľīåĬ©äºİ 105767
æ¶¨å¹ħ 106422
â¸½ 149699
Ġcapacitor 84425
Ġplate 11968
Ġdod 31089
_THREADS 56239
æĪĳèĥ½ 110913
ðĿĴľ 147228
Ġapologies 72173
ĉscale 70780
×Ĺ×ķ×ķ 137751
à¸±à¸ĩ 123874
ðŁĨķ 147265
éķĢ 103528
ĠØ§ÙĦØ°ÙĬÙĨ 129174
Ġjudging 49690
_rgb 37407
Ġfick 49203
agog 54080
Ġdevelopers 13402
usuarios 49644
/oauth 60703
Ġhelped 8910
Ġ×ľ×Ĳ 124597
åıĳå£° 111535
ëĭ 8843
ĠumiejÄĻtn 142905
ä¸ºä¸»é¢ĺçļĦ 111997
Ġbrav 75713
Ġgotten 17019
Ġsouthwestern 98811
çĽĺçĤ¹ 110670
åĸľå¥½ 109757
odcast 98511
aras 72842
isch 16053
ĠNeu 44850
Ġcuer 56295
Ġedi 75092
INGS 11860
ImageView 12215
erten 50958
ism 2142
Ġcylindrical 78510
_ticks 49961
ĠDistrib 53591
ĠVed 74787
ç¾İèªī 112497
ÙħØ±Ø§Ø¬Ø¹Ø© 142349
_TEAM 71198
ĠStrat 52935
Ð¾Ñī 91406
ä¼ŀ 106691
ĠSas 61089
Ġclimbed 44419
ĠpageIndex 59246
file 1192
gons 43874
çģ«éĶħ 107058
ä¸¨ 106847
Ġtransmissions 90996
Ŀì²´ 73147
ĠPlayback 95301
Ġpomp 72770
ç²ĴåŃĲ 117184
è¾ĵåħ¥ 31196
.runtime 23100
Ġlif 10136
.dynamic 59044
roker 45985
éĤ®ä»¶ 102955
ëĺĲ 144219
ä¼¤çĹħ 115724
/im 72024
_skin 66052
gable 35034
ä»Ģä¹ĪæĹ¶åĢĻ 105555
-scenes 79545
Ġclaw 56490
shal 12214
å¸Ńæī§è¡Įå®ĺ 114973
Ġjetzt 37699
Ġunderstandable 48739
Ġproclaimed 61911
ĠCapacity 40110
Ġraise 4828
Ġinterrupted 36783
âĩĬ 148798
è´ŃæĪ¿ 102971
January 32227
ä¸Ńä¸ľ 110571
×Ľ×Ł 124407
//////////////////////////////////////////////////////////////////////// 35109
Modern 48452
longleftrightarrow 87459
çļĦèº«ä½ĵ 106214
menus 57627
ÙĨØ¨ 125197
ĠBray 87820
ĠimageSize 87559
Ġpicks 21895
\Base 61500
ĠECS 87664
ĉretval 61370
.exceptions 25660
é«ĺåľ° 109116
ä¸īå±Ĥ 114773
Ġdoom 58614
Student 14096
æ¦Ĥå¿µèĤ¡ 118118
íļĮìĿĺ 134379
.MenuStrip 83760
áĥĸ 149546
Ġmeds 83807
ĠDrink 47473
ĠTechnical 26668
ãĤ¨ãĥįãĥ«ãĤ® 140475
Ġpainstaking 97613
ÙħØªØ§Ø² 140080
mlx 66903
pta 51591
ÐºÐ¾ 47099
ĠOx 50615
åıĳå¸ĥ 90447
Stores 69026
à¹Ģà¸ª 124043
èĬª 119671
ĠBOARD 51353
anteed 58250
ĠÐ¿ÑĢÐ¾ÑĨÐµÐ´ 136920
ĠìĿ¼ 83556
!')ĊĊ 98973
budget 48406
ØªØŃØ± 127663
empty 3194
.BatchNorm 62149
gles 85609
Blake 91038
è·Łå¥¹ 113647
Ġdid 1521
ĠÐ¿Ð¾Ð²ÐµÑĢÑħ 136226
å¾Ĺåĩº 107522
ĠØ³Ø§Ø¹ 138717
Ġyear 1042
ughs 31343
)} 9139
åľ°éľĩ 105526
ìľĦìĽĲ 125826
playlist 34233
é¡ºåºĶ 110960
Official 33896
.setWindowTitle 98275
èĢģå®ŀ 112425
ILLED 79911
Ġ×ĵ×¨×Ľ×Ļ×Ŀ 140034
ĠFinch 95233
åľ¨å®¶ 105904
ä¸Ńè¶ħ 108509
æ¼Ĥäº®çļĦ 108463
Ġnecesario 68274
Inc 39245
Ġbatches 44792
à¸Īà¸±à¸¢ 127678
bian 13162
ÃŃpio 127836
_typeDefinition 66605
>čĊčĊ 10389
GIT 90559
Ġdeception 63475
æ²¹ 99318
Obama 44337
Ø§Ø®ØªØ¨Ø§Ø± 137258
.login 13697
AND 3976
åĨłåĨĽ 102233
æľīæĿ¡ä»¶ 118988
Sel 39041
Ġpersonally 15726
Ġsnacks 42302
inheritDoc 32469
ĠbÃ¢y 136814
Ġnightmares 74262
åłĥ 122874
à¸ªà¸±à¸Ľà¸Ķà¸²à¸«à¹Į 134371
Ut 60120
Ġregistr 22855
asuring 68674
æĪİ 117369
ĠGood 7684
.CommandType 45848
ASIC 44659
Ġpeuvent 55211
ðŁ¥Ķ 148939
Ġabsence 19265
Ġ×ĸ×ķ×Ľ×¨ 141731
Ġdigits 18509
Ġperipheral 34588
veis 43699
video 9986
Ġcharacterized 31871
exels 94727
æ·ŀ 120775
ropp 75056
Bool 11233
ĠLinden 99065
imary 3111
ĠTech 17374
ĠCosts 63041
Ø§ÙĨØªÙĤØ§ÙĦ 136983
_Render 42102
Ã³nico 59795
íĹĽ 144673
ĠnewInstance 66662
ĠsatÄ±n 137747
Ġanale 78237
ãģķãĤīãģ« 130129
ĠRevelation 75507
withstanding 48944
ĠYÃ¼ksek 139258
Ã£n 128211
Ġdiary 46142
enable 12552
_kv 97066
pletion 14386
×ŀ×Ĺ×ĸ×Ļ×§ 141903
Ġseriousness 74381
æĭ¨æīĵ 109149
nor 44707
Ġamid 22617
-ra 58301
Ġ×ľ×¢×ķ×ŀ 137131
Ġresidences 84771
Ġgb 47015
Ġanonymously 72151
interpre 74714
"default 86191
ëĬ¥ 66019
.Caption 40351
_Dec 78668
-heavy 73566
fname 23993
ä»įæľī 108458
åīĬå¼± 113277
ĉFILE 42823
æĹ® 119630
OLLOW 30189
aleb 63930
à¸¢à¸¶à¸Ķ 140561
æ¥Ĥ 121142
Ã©cran 140348
oteric 82675
Ġ//< 59181
ãĢĤãĢĤ 28919
ĠÙĬÙħÙĥÙĨ 126298
Ġeines 36108
hy 8503
ĠtotalPages 92294
anten 54834
Ġseason 3200
ĠMiracle 75964
Ġdotted 58101
æ»ĭçĶŁ 116017
è¥¿äºļ 103280
ĠìĿ¸ìłķ 139180
çĽĽå®´ 110484
Ġsanitation 76523
Ġattent 51209
Ġstain 51964
ras 12784
Ð²Ð¾ÑĢ 126072
ãģĻãĤĭãģĵãģ¨ãģĮ 131963
ĠGarage 38896
Ġbelt 19125
ìĮ° 150985
_ROWS 62725
ĠlParam 51834
Contents 14803
.basic 33257
ä½ĵçİ°åľ¨ 106535
bul 16110
ðŁļ© 145821
ĠgridBagConstraints 54259
Ġgrievances 86936
æŃ£å¸¸ 100416
ĉcurr 54966
Maps 36562
ä¸ºæŃ¤ 104973
ðĿĲĽ 149318
Ġgithub 31004
-Cds 98018
Ġrubble 73435
Ġthru 40078
(indices 65300
×§×Ļ 124784
ïº¹ 145984
%</ 52508
Unhandled 95539
ĠBolshevik 91401
ĠAstr 38516
ĠDestructor 59068
%ĊĊ 15441
/AFP 68315
undance 97581
ê°Ľ 145943
Ġgeneralize 92540
(Size 81779
.randrange 73722
_binding 60815
udge 19561
Their 34797
quist 55309
wa 9991
åīįéĶĭ 111976
ëĤį 145365
Ġparticular 3953
,next 62629
Ġìĥ 134582
MEMORY 98706
pleasant 43907
adratic 88678
æ¥½ãģĹ 126679
:]. 72559
Definition 10398
à¹Ģà¸ģà¸´à¸Ļà¹Ħà¸Ľ 138952
ä¸ºæł¸å¿ĥçļĦ 109275
_annotation 61237
ä¹Łè®© 108317
åĮĸå¦Ĩ 103029
Ġacknowledging 60608
Ġcasts 56033
Factory 4153
æĮĩæłĩ 104118
éłŃ 104172
Ġdurante 29231
ĠBing 53487
ĠÐºÐ°ÑĩÐµÑģÑĤÐ²Ðµ 131191
æ±Ĩ 119627
jual 65029
bah 68143
ëİĲ 147898
Ġsampling 24892
krÄĻc 141699
ÙģØ´ÙĦ 137611
å¢Ģ 121558
_ARGS 24386
zin 57097
ä¾Ĩ 99498
ĠMig 37551
_Name 19015
ãī³ 149071
Ġmanoe 98681
Ġawk 19976
Ġrevive 58716
Ġserge 71201
Ġstroke 12654
à¤Ľ 147877
Ġluz 64466
ãģ©ãģ® 126055
ĠPSG 92677
Ġ×Ķ×Ĳ×ķ×ķ×Ļ×¨ 141248
ĠĊĉĉĊ 67392
ìĨĶ 142727
ĠLei 72210
Ġiz 22137
Ġ×¨×ķ×¦×Ķ 129469
ĠØ±Ø¨ÙħØ§ 139869
æļ´åĬĽ 105905
ĠÐ¾Ð½Ð¸ 128729
ĠFlag 22666
ĠBair 97678
ATION 3495
Ûħ 150049
æĢ»ç®Ĺ 115066
ðĿĳĹ 148098
paused 78293
\Application 62949
Robert 34532
ĠSpartan 76186
ĠNev 24324
ecture 62193
ĠSerializer 58822
Spinner 31081
æŁ° 120054
éħĴ 99525
Ġinf 4132
Ġpuppies 56625
Ġvisibly 73006
.ident 64468
Ã¡cil 55604
-parser 36620
\Form 21586
minating 64283
æĹ¥åĨħ 107875
Ty 31874
ĠDataGridViewCellStyle 75263
ãĥľãĥ¼ãĥī 143613
æ¤ł 120904
Ġsubstantive 66649
Ġaggregated 70822
Ġikea 74735
.boolean 57534
foregroundColor 81144
çĽ´è¾ĸå¸Ĥ 116866
èĲĳ 120595
æĹģè¾¹ 102708
ìĦĢ 145996
addGroup 15488
Ġkhiáº¿n 128893
×©×ŀ×Ķ 134329
Ġcolor 1894
ðŁ¤ļ 146981
ä¹ĭåĪĿ 108957
_Save 78746
Ġdisb 93444
ĠRoch 35869
æĻļä¸Ĭ 104030
ĠMotionEvent 56957
Ġapa 60593
âĬ¥ 147296
Ġexamines 47995
Ġprestige 65121
Ġrelev 78315
_connected 43276
åĴ¡ 122459
hots 34413
oning 19744
ä¸ĭæ¬¡ 107467
æĥ³åĪ°äºĨ 114316
Ġunnecessary 25165
ĉĠĉ 47930
åĳķ 103611
ĠChÃºng 131272
ĠDecide 98881
MD 6076
Symfony 45174
ĠØ§ÙĦÙħÙĬØ§Ùĩ 137010
adero 73230
Ð¿ÐµÑĢÐ°ÑĤÐ¾ÑĢ 139249
phys 41205
ëĪ¼ 149737
éĿŀéģĹ 108846
Ġ'&# 58539
.visual 52597
ĠEX 4063
Ġops 27132
_Draw 69154
.writeValue 89222
ĠÐ°Ð±ÑģÐ¾Ð»ÑİÑĤÐ½Ð¾ 142752
igenous 25354
ĠDIE 71406
Ġgiáº£ng 137384
Ġgrands 93427
ĠogÅĤ 143303
Ġ×Ķ×ł 125448
Ġverdad 81171
Ã§Ã£o 5903
ä¿Ŀè´¹ 115520
CNT 97254
ĠShoes 38629
Ø·Ùħ 133754
íĸĪëĬĶëį° 140490
ĠBesides 30809
áķ® 150541
×Ĵ×Ļ×ĵ 126120
éĽ¨ 100029
éĩİå¤ĸ 115407
;color 39691
.colors 30461
åľĺéļĬ 114257
æĢİä¹Īåģļ 109031
_prot 22357
.setScale 80705
Ġlaughing 31581
Ġignore 10034
<Button 50732
Yesterday 50277
lust 70979
å¢ŀéķ· 118947
ismo 17001
ven 1037
ÙĤØ¹ 130510
éĻĲ 47149
åĻªéŁ³ 110310
maps 17640
stores 43469
íīĪ 146464
SSH 62419
çŃĸçķ¥ 104238
cludes 7396
ØµØ§Øµ 138065
íķĺìĭľëĬĶ 140641
ĠBr 3240
Ġcrushed 32645
-caption 58317
Ġinvocation 28696
Ġrecognizes 44699
claim 7859
Ñ« 146872
Ġcontradictory 70140
Ġdisabled 8386
×ª×ķ×¡×¤×ª 141222
ĠMiddleware 72012
ĠCurtis 50716
ographer 41506
ĠStir 64192
_LICENSE 57560
-IN 80021
kke 90761
ä¹¡æĿĳ 100833
ĠJeep 49902
ï´ 124367
stat 9878
ç»¼åĲĪæĢ§ 107263
-facebook 53587
ĠCock 33927
atherine 27009
istring 73756
writes 59079
ă 191
ĉredirect 37921
×Ļ×ĸ×Ŀ 135165
çļĦæĿĥåĪ© 107905
Ġ×Ĳ×Ļ×Ł 128455
_than 51613
ĠLiterary 73624
Ġ×ľ×ŀ 128359
Ġ×ł×Ļ×Ķ 135813
ĠØ§ÙĦÙħØ³ÙĦÙħÙĬÙĨ 134927
æĥ¯ 100239
_txn 92299
)viewDidLoad 40494
Ä» 147866
Ð°Ð»ÑĮÐ½ÑĭÐ¹ 130451
ĠChem 18994
ric 2216
/id 38146
ç§ĳæĬĢ 99602
ä¸ĬåŃ¦ 106813
Ġcomparisons 35495
Ġokhttp 48032
Ġbouts 95171
è®²ç©¶ 107355
æĨº 123588
Ġalguien 88319
(shader 54597
Ġdeclaring 36531
å°±æĥ³ 110684
errated 83656
ï¾ģ 144593
ĠØ§ÙĦÙĥØ§ÙħÙĦ 140286
ç§ģä¸ĭ 114746
ØªØ±ÙĥÙĬØ² 141383
ê°Ŀ 127906
Ġlessons 18366
ottage 33695
è¿½ 99626
åį°åº¦ 104456
å¿ĥæĦı 113961
Ġ>>> 12109
ĉTime 67567
)[' 50510
å¼Ģæ°´ 111950
ouncill 45403
ĠdiÃ¡logo 143566
.Count 6134
Rnd 92453
æĿĥå¨ģ 105058
}};Ċ 52481
Ð¸ÑĤÑģÑı 96234
à¸Ĺà¸µà¹Ī 123828
"All 67049
universal 95300
ðŁĮµ 146020
.ASCII 80969
startsWith 57936
Ġframerate 97251
ĠNation 17227
Ø§ÙĦØ£Ø±Ø¯ÙĨ 135412
uale 49311
å¾Ĺä»¥ 105245
.party 97165
ĉSP 96174
ĠHillary 15033
ĠÐ¿Ð¾Ð± 138021
.isUser 93994
ðŁķ¸ 147963
.ndim 80939
ĠCowboys 40305
IPPING 55381
[root 79444
ooky 66724
ĠVe 22584
ĠRangers 33187
CY 34525
Earlier 33041
ä¸įå¥½æĦıæĢĿ 109915
Ġsos 60877
åĬłçĽŁåºĹ 112674
ĠGi 15392
craper 86282
ĠBridges 76239
_FORMAT 14960
Ġtrusted 21789
.Patient 95639
_FieldOffsetTable 88396
âį© 148822
Ġcyclist 80031
Ø¹ØªÙħØ¯ 132448
ĠGlenn 39108
(CharSequence 72646
canvas 19943
ĠZum 71474
ĠStra 26647
Ġclever 27699
Ð»Ð¸Ð½ 126688
ðĿĹ» 146994
bial 46959
Ġdiet 9968
liÄŁi 126326
ĠìĿ¼ìĿ´ 136168
javax 45148
aviest 98362
ä½ĵä¼ļåĪ° 111571
duck 72970
æ±²åıĸ 113831
çĶ° 99810
éĶ¢ 121224
/delete 32275
à¸ªà¸±à¸įà¸įà¸²à¸ĵ 141451
Ð·Ð²Ð¾Ð½ 134117
ĠMultiply 71059
åģ¿è¿ĺ 111544
COM 8696
Ġë°Ľ 83596
Ġblush 69226
/add 19627
crap 98721
cestor 81340
lei 62785
ĠAES 38841
User 1474
¹ 117
CURRENT 44690
bairro 58383
åĪĺ 100351
Ùĥ 31073
ĠEthnic 91418
ĠSpinner 47545
Ġkomt 72633
alli 95793
Ġrotations 69201
ìķ³ 145955
ë©ĵ 146741
(QWidget 40617
*X 92051
Ġtrabalho 54639
èģĮ 99205
orgt 82751
å®ªæ³ķ 109210
Ġwelding 58922
ĠÐ¿Ð»Ð¾ 127265
Avatar 24845
Ġcandles 51205
@endsection 18255
Ġwrong 4969
Ġhumble 38512
ĠExterior 70681
ĠArr 18418
Ġmarker 11134
Nodes 12288
Ġ|- 44561
Ġpixmap 84351
Ġtrois 55221
ervlet 4560
=email 76371
ination 2554
.Col 54650
ĠUNC 75255
-workers 62284
.ag 28092
.upload 32396
æŀ£ 101728
ĠEyes 41996
Ġadm 14591
è¥² 119287
Allocation 78316
Ġ","Ċ 89488
èľ± 121419
Ġcursed 62871
Ġcul 11695
Ġroots 19703
ë¶ī 144676
_parms 98935
Cas 49242
ziaÅĤ 69117
èł¡ 122093
Ġindic 4447
ç»ıæµİä½ĵ 114343
Candidates 97134
dio 71763
keley 27299
Ġmingle 90025
ium 2356
oda 13993
_UNSIGNED 51979
ïº» 145001
Ġbrutally 69187
Ġstove 44015
Ġsok 83726
áĥª 150471
ðĿĳĿ 145956
ĠLib 5688
ç¶ĵæŃ· 117569
ĠModel 4903
ukan 27724
[right 52918
ĠConsortium 72447
ĉold 61828
mount 16557
<' 18291
traÃ® 138377
ĠATP 66556
_length 5118
.getSelected 30307
onis 96694
åĪĿçº§ 110303
ĠBY 7710
iefs 29821
.nb 65840
èĬ® 119234
Ġ],čĊ 34341
Ġ]ĊĊĊ 83007
-image 13746
Ø·Ø±Ùģ 130349
Archivo 74089
Ġdedicate 73604
raise 18704
ĠGO 12604
Ġnieruch 140328
_crypto 78298
å¤ļæł· 101725
ç¤¾ä¼ļæķĪçĽĬ 116049
ĠFacebook 5573
Ġflooding 38162
ĠÙĬØ¬Ø¨ 129539
shuffle 65355
MMdd 70567
Ê¹ 145217
iá»ĩm 141071
ĠMime 82430
ðĿĴ¿ 151312
Ġexclusive 13761
ç²Ĵ 101425
ãĽ¹ 123111
Ġjj 36729
()</ 86661
Ġofere 80952
áĹ© 147539
ä¸ĭæĿ¥ 100194
Ġspeaks 21191
alth 1864
×ľ×§ 124847
Ġvideoer 69057
ulates 23156
gems 99053
ĠStainless 32490
Ġevident 29476
Serialized 77521
crollView 41088
ãĥĹãĥ¬ãĤ¼ 140132
å·¡ 100119
×¨×ķ×Ŀ 135555
é¦ĸéĥ½ 106114
-device 65607
ĠÐ¡Ð¾Ð·Ð´ 95679
Ġhappily 36775
ï¾İ 144627
ê²Ķ 144754
ìĬ¤íĥĢ 141274
ET 1348
.gradle 61483
ÑĭÐ²Ð°ÑİÑĤ 136474
é²ļ 121475
ĠTiáº¿n 133778
ĠgÅĤÃ³wna 140541
Ġjumper 68984
Ġrenewal 42801
.fname 91773
Document 7524
ixture 12735
ä¿¡åı· 104757
Svg 63406
èŁł 121978
Ġmaps 14043
ĠPrincess 29289
phy 12700
ãĥīãĥ© 127693
èįĽ 122419
$row 29914
âĬħ 150171
è¦ģåŃ¦ä¼ļ 115880
houette 45625
è¯Ĺ 100045
ĉflags 59516
Ġinquiries 43883
.END 55498
áĪħ 150481
áĭŃ 147516
ĠÐ¾Ð±ÑĭÑĩÐ½Ð¾ 135927
ĠRÃ© 50123
Ġdestiny 46076
Ġlocksmith 97960
è¿Ĳè¡Į 104001
ollider 31255
ë£½ 145873
Ġsupers 51690
-cookie 87239
phoneNumber 58173
ornings 51685
éĶ§ 123196
closure 46916
åī©ä¸ĭçļĦ 108719
=====Ċ 64897
Ġê·¸ëłĩê²Į 132330
-commit 96398
'https 86568
Ġfacet 44507
Ġjuxtap 97853
iddy 75570
Cheers 74861
uci 42409
×Ĵ×Ļ×¨ 138899
izable 8335
ç¤ĵ 121968
ĠÐºÑĢÐ°Ð¹ 143110
æ²»å®ī 107535
.getList 62585
BAR 33065
ressed 14378
ä¸»é¢ĺæķĻèĤ² 112196
ĠSEC 21638
ĠValencia 60249
ĠManip 60911
Ġuma 10608
.init 8271
.DESC 93120
_CR 24314
ĠDAM 12360
ìĭľíĤ¤ 135298
ĠÅŁekilde 128813
å¡ŀ 101202
Ġcandle 37799
bum 5377
å¤®è§Ĩ 106062
ĠBang 16914
Ġspindle 98191
åı£å¾Ħ 114967
.SP 67695
ranges 66562
Ø±Ø£Ø³ 130588
Ġunr 40380
áĺī 149578
.executeUpdate 38912
Ġnuevos 70563
Ġpopup 21960
ĠÅŁirket 131024
çĮ´ 103090
Repo 25243
ãĢĤ',Ċ 61993
åľ¨ä»ĸçļĦ 108677
Ġenvelope 34398
ONA 94987
Ġretirees 96723
ĠDJ 21387
ĠOutcome 94609
odom 84767
INARY 32593
Ġbehaviour 16999
Luc 40645
ediator 87694
ĠGovernance 80589
Ġllevar 69580
è¸® 121605
å§ĺ 120270
ĠSUS 89029
Ġsubdivisions 91445
rear 58408
argest 32381
Ġexemplo 79594
Ġë³ĢìĪĺ 80740
.AddField 87444
ĠsaÄŁlayan 142669
UGINS 91112
Ġsells 30778
æĴĤ 121354
-history 61374
Heroes 98573
,error 83305
ĠListe 73086
Candidate 63901
Ġchains 26179
à´ª 148478
res 416
æĶ« 122106
éģŃéģĩ 104928
íĨ¢ 150221
ohen 26440
Ġalto 23299
DEPEND 95678
Diagnostic 79388
å¸¸è¯´ 115054
ĠRaised 53731
ĠPalestin 16331
ĠstringWith 19027
ĠÅļ 92027
.face 46031
æīĢä»¥ 99999
çłĶåĪ¤ 111645
ĠestratÃ©gia 140792
asÄ± 92285
castHit 82720
âĢĻ. 23616
æģĻ 120486
ìģ 124582
ðŁ§ŀ 149322
ounce 9734
Ġexpose 28141
duplicate 63826
_weapon 69475
erset 44146
è¶ĬæĿ¥è¶Ĭé«ĺ 112683
(Employee 76919
wÄĻ 130511
profession 96135
ĠLC 30871
ĠÐ±ÐµÑĢÐµÐ¼ 141053
pas 41101
.localStorage 48107
ĠKhÃ¡ch 138053
-binding 64400
Dec 4900
ĉexpect 24952
à¹ģà¸ķà¸ģà¸ķà¹Īà¸²à¸ĩà¸ģà¸±à¸Ļ 142864
ĠStanford 30688
à¸¢à¸¶ 140560
','= 51530
à¦ī 148849
æī¹åĩĨ 104471
åħ¬å®ī 100114
Ġgone 8048
Accent 61366
NSObject 52653
ðĵĥ 128241
.obtain 72868
Written 35624
Australian 74241
ç¾İå¦Ļ 112278
ĠDepression 45804
à¹Ħà¸¥à¹Ī 142064
Ġestimator 67298
makes 79685
ãģįãģŁ 125338
ç«Ļèµ·æĿ¥ 111223
Ġtwice 10917
Ġ{});Ċ 35311
Ġëħ¸ 127042
EMPLATE 27632
-peer 78597
_vid 68385
rightarrow 19491
ĠEthiopia 59357
ä¸¾è¡Į 100734
ëĪĭ 150884
={"/ 98367
ÑģÑĤÐ° 126309
ĠNL 32160
hart 46389
ĠUsage 24567
ã¿ł 122844
Fantastic 96732
UserId 13504
_NM 96053
æ¯³ 120970
ä¸Ģç·Ĵãģ« 127710
ðŁİ 123816
preh 30782
æ££ 119226
--+ 85894
æ¾³éĹ¨ 104946
æ¸ħæ´Ĺ 105077
è½¬åŀĭåįĩçº§ 105816
ĠSel 23204
ĠElement 8543
ieg 35010
Ġdá»«ng 138251
web 2911
.ComboBoxStyle 87585
ä¸įå¾Ĺè¶ħè¿ĩ 118432
.ComponentResourceManager 39603
à¸Ļà¹Īà¸²à¸Īà¸° 134702
Carthy 41581
erk 16754
æ³ 14546
"),čĊ 28978
BUTTON 38450
å¾Ģå¾Ģæĺ¯ 110551
ĠAQ 82455
ĠSchro 94582
ÎĦ 146778
çīĪæĿĥ 100858
ĠWAR 57983
ä¸ĢåĪĻ 113915
æİĴæ±¡ 112565
Ġsir 27048
Ġmisery 57601
Ġsixth 25031
_Connection 85002
-leading 68375
åĨĻçĿĢ 112129
æķ£åıĳ 103744
à¹Ģà¸Ħà¸£à¸Ķà¸´à¸ķ 139892
')]Ċ 49624
Republican 68455
ĠLam 32694
Ġnuts 29949
_PERMISSION 52788
liter 68091
Ġsphere 25366
{@ 59221
éķ¢ 121895
Ġvn 51017
.js 2857
RNA 30720
[tmp 68503
Ġdeficient 86444
íĳ 124744
É¹ 146589
Ġpratic 97039
Ġcompartment 43498
Ġshocking 33634
">'.$ 35668
ç»ĵåĲĪ 100374
×ľ×Ļ×ľ 134551
Ġparaph 62230
×ŀ×¢×ł×Ļ×§ 142550
-life 25843
ĠAus 20004
PosY 76298
Ġsugars 69813
Qed 45849
typeparam 26946
acob 38951
Ġleaf 15933
åĸĭ 120910
Ġhandling 11589
.cal 27871
usch 51078
(print 50928
>Ċ 397
muÅŁ 126661
Ġpregnancies 81208
aram 637
/The 47748
ä¸Ģçĵ¶ 113472
è®®åĳĺ 112307
ÙĥÙĩ 140607
çļĦå½±åĵį 104126
ĠOsc 55636
ure 552
but 8088
nofollow 28530
ĠÑĤÐ¾Ð¶ 131558
ĠTexans 52691
ãĤĭãģ®ãģ¯ 132471
çİĩé¢Ĩ 108795
èĮ¸ 116210
igner 77656
çĿĢæĢ¥ 108363
æŀ¥ 119833
latesAutoresizingMaskIntoConstraints 60107
Ġavenues 72134
Ġupd 79003
Visualization 69036
Éª 145076
Ġacuerdo 62860
Ġdrum 23196
(strings 51442
ĠMANUAL 92423
ĠzaleÅ¼y 142464
ÙħØ³Ø§Ø¹Ø¯Ø© 132901
ĠSally 52291
'}}>Ċ 45027
Sale 44800
ãħ¤ 144965
æ¡ĮéĿ¢ 111804
ĠDifferential 98736
getOption 69023
æº± 121295
åĴĮä»ĸçļĦ 112370
Ġwalking 11435
çĽ¸å¯¹è¾ĥ 110426
.dim 34265
æī®æ¼Ķ 102889
_GC 76915
ÑĢÐµÐ³ 138882
(IP 55483
.Utility 62652
Spo 68680
çĶµæľº 107114
âĻªĊĊ 65225
æĹħéĢĶ 113007
íĨ¤ 144278
ìĺŃ 147017
Ġcompositions 61544
æīĤ 122538
Ġsocialist 40189
Ġtrickle 97344
å¥¢ä¾Īåĵģ 113247
Ġindonesia 84378
Ġcloning 77866
ugeot 93422
partners 97031
Ġdiameter 23033
ĠJin 38511
èĩĬ 119515
()][ 75453
ç¥ŀèī² 112053
Ġcheck 1779
ĠTet 49762
Ġblonde 26026
éĻ£ 111075
ķ 243
Å¼y 27206
coon 72235
Ġdashes 87546
_decision 90636
Ġgracias 66548
reb 31475
vu 45690
ãģĭãģ©ãģĨ 134494
çŀĦ 103395
çĬ¹è±« 103180
çºłç»ĵ 109848
íĸĭ 151101
TickCount 98451
ĠKh 20165
æ¢¼ 122779
.combine 89290
.acc 60860
Sound 16103
OURNAL 94699
ë® 124366
)}> 63632
Ġarousal 86817
Ġclic 47276
×ŀ×¡×¤×¨ 132943
Ġenc 3209
ĠTreasure 57148
ðĿļĸ 149263
ĠViolet 73474
Ġspecializing 57294
Ġcaracteres 59255
_country 28106
Ġlegends 48328
è¾İ 120905
.memo 77791
_filepath 53490
ĠTHROUGH 93105
à¸Ĵ 124913
ĠsaÄŁlÄ±k 133874
:. 16976
æģ£ 120478
ĠgÃ¶rme 136734
Ġhandshake 57020
Ġë§İìĿ´ 130966
å¦³ 110768
âĮ§ 150665
hiáº¿u 137503
/process 86780
íĿł 144629
Ġpreprocessing 63631
Ġzien 79407
ðŁ¤¤ 145647
Ġ}*/Ċ 42833
ĠKnot 92144
æĸ°è¥¿åħ° 109751
ãĭ© 150187
ð¥ĸ¨ 123677
.CSS 82584
Ġaccordance 18353
ç¼ºéĻ· 106136
Investigators 87180
ĠEq 33122
ĠPearson 58542
Ð¢Ðŀ 132944
(C 3025
Ġcreepy 50840
Ġ×Ľ×Ĳ×Ļ×ľ 138463
_St 70645
Ġjew 16868
(GLFW 73209
Ġinstructor 32215
DlgItem 53134
orsch 79985
æı½ 106855
.Maximum 59213
("~/ 50919
Dash 42263
Expanded 51933
Dir 6184
Ġke 1962
URED 86313
ĠMÃ¤rz 135777
kip 13389
åĽļ 113372
.getDefault 28594
getic 35224
Earth 43824
,false 23367
åįģå¤ļå¹´ 110894
ĠÎ³ 62027
×ª×§×©×¨ 139972
Ġbats 42208
ĠZhao 69281
()]);Ċ 57887
anton 30954
{}_ 65797
.auto 23614
è¦ģåıĬæĹ¶ 114432
ĠzwÅĤaszcza 142387
á½· 145341
_turn 37274
ques 13968
è¿Ļä»¶äºĭæĥħ 111553
Serialize 15680
grid 4203
ĉConsole 41276
Ġgossip 57487
.synthetic 46092
lost 54337
å¼ķåıĳäºĨ 114808
assertSame 37774
æ¸©æ³ī 107386
Ġsrand 68268
(:: 38732
Ã¤hl 90785
Ġ).Ċ 95605
ÙĪØŃØ¯Ø© 132795
Howard 75668
/button 54308
stÃ¤nde 138087
æ©Ļ 107678
èįĨå·ŀ 112023
ĠkhÃ³a 131774
RW 56368
Ġreco 47655
Ġà¤® 91217
-global 73319
XMLElement 85534
.setToolTip 73616
ì© 124163
itas 21226
ĠScri 75680
.GetValue 25816
]initWithFrame 59595
wner 4721
æľĢå¤ļ 102538
ëĶ¸ 144243
Ġrecre 22824
ĠIntegr 29001
ĠNASCAR 64590
...',Ċ 74740
liÄŁ 125364
ĠML 19614
Ġguild 26411
ĠCleanup 53512
ĠGrowing 59680
åĲĦåĽ½ 102772
Ø¥ØµØ¯ 138768
Ġnasty 34407
ĠÄĳá»Ļi 129188
Ġdonc 38487
-repeat 33743
_visited 96729
Problem 31198
ĠngOnInit 17807
']-> 14569
Ġbiomass 57658
Ġterra 59561
çĤ¹åĦ¿ 112519
ĠPHP 13119
ĠSmith 9082
æ¶Īæģ¯ç§° 115499
çĽ®åīįåĽ½åĨħ 115769
ĠØ¨ÙĩØ§ 128794
èº«åŃĲ 108233
.COM 20851
ĠSamp 90174
/language 88436
æİĴæŁ¥ 105853
æĪĲå°±æĦŁ 118026
Ġlease 25064
_WIDGET 49094
".$ 8634
adaÅŁ 126531
Ġassisting 45827
çľ¼ç¥ŀ 108564
other 1575
Ġmystery 22531
ĠÙħØ¯Ø±ÙĬØ¯ 142611
âıļ 150674
ĠCoordinates 62501
<?> 19542
ĠëĤĺëĿ¼ 137449
Ø±Ø¤ 135746
_literals 49643
tester 73358
.gsub 52886
Ġknowingly 67013
ower 1202
âĹĻ 146252
Ġduplicate 22513
Ġgearing 80722
_Project 64659
å©ļ 99838
(policy 72782
drm 98558
EXP 32337
æĪ¿å±ĭ 104176
DataGridViewTextBoxColumn 64930
interest 12724
.params 9003
Ã½ch 97855
Ġspeaking 12094
å¹¿æ³ĽçļĦ 109838
ç¡¬ä»¶ 105433
irs 16838
ï»¯ 145861
Ġcleanliness 95291
=-=-=-=- 55803
Runtime 15123
opez 41259
:left 34810
ĠPush 22950
ĠTrafford 94646
lon 12212
artist 18622
Ġdecrypted 62961
Ġdonor 34458
ĠSTYLE 62947
ÆĶ 146932
Hierarchy 85264
ĠÐ¼Ð½Ð¾Ð³Ð¸Ñħ 137908
ularity 28979
_SAMPLES 89881
Ġtantal 94585
bled 37659
_loc 13400
ĠGoth 31937
.finish 40086
modern 49789
={[Ċ 68221
_Edit 66158
Ġgin 46183
cdc 72026
ynes 83167
âĸ© 148846
Ġdez 70768
.Debugf 88278
.Style 22100
Ġcoron 21989
ĠPink 26119
ĠPARA 50400
ØŃØ±Øµ 137952
ĠĠĠĠĠĠĊ 6926
Ġ""čĊ 51946
Ø£Ø®ÙĦØ§ÙĤ 140876
ëĵł 81676
FACT 58710
à¸ľà¸¹à¹īà¸Ľà¹Īà¸§à¸¢ 140259
(changes 97741
ĠÐ½ÐµÐ´ 127782
ista 9087
uddenly 43706
ĠIndividuals 61425
Ġbacks 27578
Ġgen 4081
ç«ĭæĸ¹ç±³ 112133
é¼· 123785
Ð¾Ð³ 14497
ðĿĹº 148002
tl 11544
Sharing 83756
à¸ŀà¸´à¹Ģà¸¨ 129959
ĠÐ¯ 128557
áī¦ 149271
ĠProcess 8603
ertificate 20962
áĴĭ 150529
ĠRen 13775
ĠØ§ÙĦÙĨ 124080
ä¸ĭåįķ 112832
partment 35991
ĠDenise 80249
Ġcliente 26629
feito 89118
×ª×§×©×ķ×¨×ª 131325
Ð¸ÑĦÐ¸ÐºÐ°ÑĨÐ¸ 136878
Ġsounding 48127
Ġframebuffer 73019
çļĦä¸Ģ 99774
_unicode 54662
ĠÄĳo 125190
ĠAtkins 95984
Ġliberated 84755
ĠëĮĢ 60960
ĠSingles 46322
classpath 79814
Ġindirectly 45245
<uint 16434
ãĤ¯ãĥª 125322
åı¯ä»¥èİ·å¾Ĺ 112812
Ġmus 3091
×Ļ×ĳ×ķ×¨ 126094
ĠRails 36405
Ġnumber 1372
Ġschematic 67044
æľĪæľ« 114634
ugs 13299
Ġinitialization 17465
ĠMunich 46204
ï¯° 149848
_COMPONENT 40021
bundles 86660
@RequestParam 94320
emies 11041
Ã³w 12263
ifications 7029
Ð¹ÑĤÐµ 129706
×ĳ×¢×Ļ×ķ×ª 133442
ĠUITableViewDataSource 79768
ĠgÃ¶rev 129864
ð©½¾ 123379
ãĤĴæİ¢ 127921
ĠLS 29202
Ġblind 18020
Ġreceptive 87551
Ġwide 6884
æ¬¢ä¹Ĳ 106437
ĠScreens 68681
×ł×Ĵ×ĵ 126153
åĹŀ 120939
ĠOFF 17611
Ġcane 62235
Ġsubcontract 94379
.Btn 44182
ĠZug 76716
lauf 97761
Ġuncomfortable 28113
webdriver 95477
éĩįçĶŁ 109006
è¡¨çİ°åĩº 107837
ĠFEATURES 93262
abhÃ¤ngig 138645
ç© 32254
GetSize 95379
Ð±Ð¾ 126394
Correct 33092
cam 11599
;height 43041
ä¸ĢåĲĳ 108615
ĉstatus 23847
ĠHarbor 39182
.Encoding 58764
_lens 81642
×ķ×ĳ×ľ 127511
á´¡ 149004
Ġchap 37738
Ġbereits 47143
ĠRemed 96870
Ġnegligence 58257
ĠØ§ÙĦØ²ÙħÙĨ 141364
å±¥ 100834
Crime 91590
.Metadata 46475
_redis 87542
Ø´ÙĩØ± 127911
Thread 6855
rlen 69069
ä¸¥å³» 107340
ä½įæĸ¼ 118230
äºĮæ°§åĮĸ 114803
è§ 19113
.moveToFirst 79153
é«ĺåİŁ 108402
qi 40187
ĉview 36867
ĠErotic 81842
ĠwrzeÅĽ 137718
Closure 53854
Google 14444
.mk 35011
pls 56986
ĠDialogue 69489
Ø©Ùĭ 135517
ì¶Ķ 132526
å¸ĥé²ģ 112207
LB 34068
Learning 47467
Ġannual 9775
ä¸ŃæĸŃ 112788
cks 14553
×ª×ķ×©×ĳ×Ļ 135625
(RE 43202
æĺİãĤī 138949
ç½ĳåıĭ 100744
='"+ 38548
Ġthumbs 56849
.structure 67336
achines 70142
Ø£ÙĨ 124229
organisation 57804
ç¾¡ 103105
ĉelif 22725
Ġfamilia 50947
ãģ¦ãģįãģŁ 132335
ĉĊĉĉĊ 58087
ButtonText 54603
oglobin 93755
ĠVARIANT 82346
/rss 85291
Ġ'-', 50349
æĹ¶ä»£çļĦ 106442
Ġ×Ķ×¨×¤×ķ×Ĳ×Ļ 143511
_SQL 46625
)))čĊ 36207
ĠBold 46002
ĉmutex 42622
.deltaTime 28758
sheet 15119
ãģ¨ãĤĬãģĤ 140280
ĠPopulate 70938
-meta 54017
ì²§ 151048
Liverpool 92605
Ġdental 28006
_Float 89067
ML 2668
.population 88045
ĠØ§ÙĦÙħÙĨØ§ 136719
ç§ĭåŃ£ 109137
ÄŁÄ± 43286
ë¦´ 135379
_RECT 69621
ðŁĮİ 146249
facet 83523
ØªØ³Ø¬ÙĬÙĦ 131051
-description 42830
Ġpstmt 49575
ĠJW 95476
Ġaggrav 44941
Ġmorb 92044
itage 18443
ÙĪÙī 125187
ĠAnglic 90534
Ġrelease 4879
Ġclen 84934
×©×ķ×ª×£ 137953
ALLE 46861
Ġadb 82412
ĠVisual 20185
ĠRefuge 51119
Ġillicit 58129
ÅĤÄħcz 128766
(socket 27050
Ġjet 16594
ĠREQUEST 33416
_Val 88271
Levels 46991
âŀ¸ 147253
ĠPAGE 25040
Regards 95468
å¯Įè£ķ 109461
teborg 77429
×ķ×Ĳ 124008
ä¿ĿåĪ© 111462
ðŁĽµ 146695
ĠÑĢÐ°ÑģÑģÐºÐ°Ð· 143631
íĿ¡ 144147
Ġconsult 8498
ëĪ´ 145272
×ł×Ŀ 127162
à¶ļ 147677
èĻĴ 122664
Ġ×§×©×¨ 129478
Concrete 83594
Activity 4052
èļĵ 119379
ä¸įå°ĳ 100411
ĠÑħÐ¾ÑĤÑı 132957
íĻĶ 56290
Ġêµīìŀ¥ 142661
Ġtroub 19904
ĠÄĳá»ķ 136008
ĠReign 80871
Ġadrenal 59464
-Apr 66148
âĨķ 146853
affen 71378
.Success 33320
ï¦ 123821
ZY 80501
ĠCellular 87107
ĠÑįÑĤÐ°Ð¿ 137232
æıĴåº§ 116450
ĠGy 54915
Ġrampant 62577
agini 90069
äºĨè§£æĽ´å¤ļ 114130
ä»¥æĿ¥ 99919
åľ¨çİ©å®¶ä¸Ń 117897
ĉCheck 69472
ume 3885
@class 49118
Fish 64541
ç¡Ļ 122791
à¸ļà¸£à¸´à¸«à¸²à¸£ 127582
æĶ¶çĽĺ 109576
ê²ħ 145840
ĠSeasons 67200
(and 59911
Ġcapacities 58439
Ġ×ķ×Ĳ×Ļ×Ł 136030
sources 39651
Ġsustaining 79084
æ°¸è¿ľ 102099
çĶĳ 121825
ĠÙĤÙİØ§ÙĦÙİ 142087
setLabel 88553
Ġsettling 51845
TTY 55544
çĨŁ 100089
Ġluxurious 42728
Ġterrace 51478
$filter 90969
FLAGS 32748
occ 13983
Description 5009
.End 18569
typeorm 80059
ï´¿ 144167
Ġfist 39802
SCAN 92559
iams 12382
ØµØ¨ØŃ 126933
Ġlions 68032
Ġcarefully 15516
çļĦè§Ħå®ļ 105606
ĠÙħØµØ¯Ø± 137369
ØªÙħÙĥÙĨ 133616
Beyond 55341
Ġmatchmaking 61987
_sess 83856
ÑīÐ¸Ð¹ 133645
ÕĿ 149510
Ġsadd 57172
cells 36691
åĻ© 119499
lickr 31803
èĪ 62005
æĲŃä¹ĺ 117598
RAND 79046
ĠTYPE 12454
OBJ 53449
monitor 32225
__);ĊĊ 64277
---- 381
à¸¤à¸© 126136
âĸĪ 15199
ØµÙĬØ¨ 135856
à¸Ńà¸Ļà¸² 137002
åĪĹåĩº 114116
Ġbáº¡c 134424
_ABI 86974
Ġdiscussed 14078
UNIX 99089
Ġfitted 28341
xCE 81695
Ġnrw 76506
ĠØ§ÙĦÙħÙĦ 131267
ĠæĢ 90476
ð¬¤ĩ 122898
é¢Ĩå¯¼èĢħ 114176
Widget 4548
ĠmAuth 87912
Ġerv 71075
ungeon 23452
ç¦ģæŃ¢ 104484
ĠniÃ±os 67256
_exempt 95736
ÅĴ 144581
rÃ³Å¼ 127420
descricao 63662
astic 5064
UAL 16383
ĠÑĦÐµÐ²ÑĢÐ° 140719
ä¸ĢèĪ¬æĺ¯ 111071
ĠDepart 39755
Ġ×ŀ×ĳ×Ĺ 137509
ownik 72732
åĪĽä½ľ 104223
ĠORM 53590
éĿ¢å¯¹éĿ¢ 110991
Ġfern 87024
Ġlicense 5723
.Factory 51008
ãĤĴæİ¢ãģĻ 142926
èĻº 120084
ĉTitle 92233
Ġ".", 68514
åĲİçļĦ 104813
ĠEnd 3972
Ġdette 58928
Ġvisualization 41048
){Ċ 1264
Ø¥Ø¬Ø±Ø§Ø¡Ø§Øª 134042
é¢Ĩå¯¼å¹²éĥ¨ 107436
Three 19641
ml 1014
ĠSharePoint 76146
Ġlabelled 60236
Ġpasture 88255
_digest 52994
ĠØ£Ùģ 142922
ĠÄĲá»ĥ 130526
é²¹ 123567
_loader 22139
å·¥ä½ľä¼ļè®® 110185
eced 58357
å»ºæĪĲåĲİ 111735
_Tr 21038
ä¸Ģå¼Ģå§ĭå°± 116160
è½¬è¿Ĳ 112893
éľ¹ 119527
ĠBoat 44232
ĠCincinnati 35139
ĠBehind 42374
ĠGrass 39946
Ð½ÑĥÑĤÑĮ 130665
é³¢ 122085
âĵģ 149326
ĠdwÃ³ch 134452
Ġextensive 16376
Ġhiá»ĩn 128283
Ġìłľê°Ģ 132254
Ġhandset 82163
Ġmarriages 46351
åº§ä½į 108773
ĠBracket 85497
icum 85131
å®¶ä½ı 112567
SPORT 54800
marshall 84161
(Configuration 45443
NECTION 17352
æĸĩæ¡£ 111116
ĠGaussian 48568
_weight 15876
istration 4048
ÙģØ±Ø¯ 132468
Ć 194
Ġinv 1529
ĠcompanyId 67175
++++++++++++++++++++++++++++++++ 88155
åįĹæĺĮ 105996
ĠOff 4114
Ġbathtub 80088
è¿ĽäºĨ 105480
ãĥ½ 144611
Ġ×ľ×Ĺ×ľ×ķ×ĺ 139941
Ġmosaic 70524
èĶĳ 118851
ðĿķ³ 149888
Ø¹Ø¨Ø± 138607
Ġpornography 43787
æī° 100332
indent 32840
å¿³ 122250
Ġterminating 70581
_issue 53340
ëĵ¤ìĿĺ 129360
Ġluck 15019
Ġregiment 74441
ĠÐ´Ð¾ÐºÑĥÐ¼ÐµÐ½ÑĤ 127067
Ġmee 73343
å®Ŀå¦Ī 118978
åī¥ 101819
Ġeid 68331
ĠRun 6452
ĠEvan 43943
_pages 21655
ĠWikipedia 26587
åĲĥäºĨ 105705
ĠJewel 83204
Ð°ÑĨÐ¸Ñİ 127561
_processors 73153
('/')[ 94773
ë»ł 148342
åĩ¸ 103179
-cell 31901
à¸Ļà¸± 124484
åħ¼ 100258
azon 5522
Ø¨ÙĬÙĤ 126937
.performance 87130
å»ºåįİ 116304
Ġhazardous 49924
Ġpitchers 60550
äºĴ 99524
Ġurban 15662
ĠChronic 72682
ä»ħ 99373
oods 9065
Ë© 147280
Ġkhuyáº¿n 135984
ĠConfidential 73365
ĠNeptune 79624
èĬĥ 122151
}`Ċ 31257
à¸Ńà¹Īà¸²à¸Ļ 129186
ĠFalse 3557
Ð½ÐµÐ¼ 129325
Sk 19290
ocaly 66680
Ø¬Ø³Ø¯ 138006
SUR 91815
.deb 80731
Ġprer 98861
Ġstimulates 94355
(pattern 30948
topic 16411
Ġdiff 3638
Ġswing 18806
ĠMCS 93193
ĠCl 2435
ĠPC 6673
(jTextField 90643
Ġpens 22601
umar 30867
ĠGesprÃ¤ch 142127
aware 19541
imar 87356
éĩĳå¸ģ 112600
(coordinates 96996
(panel 49542
èł 99649
inge 17707
ĠDecor 26971
Ġdilig 38287
Ġinflated 69854
OCK 16678
ĠInfo 13074
Ġtravail 41675
ĠÑĢÐµÐº 133962
Ġred 2518
ĠÄĳáº¡o 128854
_GROUPS 89189
schlie 138663
ĠChloe 59370
Ġbenchmark 28431
ĠBAM 92127
Ġ×ŀ×Ĺ×¤×© 135604
ĠKERNEL 79691
ĠDIRECTORY 54140
×ŀ×ĵ×¢ 134197
ĠBeijing 26549
benh 38795
æ¸©å®¤ 111952
ĠAwake 41222
ëŀĸ 146885
acent 18181
å¤©çľŁ 112598
è¿ĳå¹´ 102134
ĠMitsubishi 78553
åĨįå¤ļ 113932
ĠMacDonald 80873
>Select 62405
ĠkeyPressed 96104
ç¼©çŁŃ 107606
Ġpending 15280
ĠGeorgia 15893
çĲĨè´¢ 102447
ðŁĽ´ 150117
ĠWishlist 84757
ideal 62953
âķ¨ 150103
Paper 30898
×ķ×Ĳ×Ļ 126084
ĠInch 54592
jsx 45290
ĠØ§ÙĦØ³ÙĪØ¯Ø§ÙĨ 134041
è½§ 111133
Job 12245
Ġbells 60694
ãģĬè©± 139598
Ġeffic 30814
Ġ×Ķ×§×©×¨ 137689
ìĿĲ 151010
GGLE 50707
spa 89198
å¸ĮæľĽèĥ½ 107452
Ġendors 33965
Ġchildhood 19990
.depth 40974
åĲ¬åıĸ 107089
oubles 85613
éĤ£ä»½ 113881
embros 90468
aÃ§Ã£o 12967
æĿĳå§Ķä¼ļ 112771
firefox 97912
*)( 25786
å´ĩå°ļ 116660
Ġseekers 49333
PROC 40576
_LANE 68488
ãĤĿ 144823
(json 9304
ĠAmy 28693
.R 2013
Ġchances 16963
markup 80827
èĦĤèĤª 105349
ĠResp 79786
çģµæķı 116580
ĠTrain 26125
Ġdisplay 3037
ÃŃv 58111
Ġëª¨ìĬµ 136665
æĹ¥ä¸ĭåįĪ 105286
ç¨Ĥ 120980
.getMonth 33803
School 32749
à¸Ĭà¸³à¸£à¸° 138336
åĴĸ 101342
Ġ%@", 31452
æĺŁ 77419
serv 30775
á¼£ 148592
Config 2648
brains 32625
Ġcalidad 55820
ìĶ° 146263
æĸĩåĮĸä¼łåªĴ 116523
åľ°å½¢ 111282
æĽ´æĸ° 50007
Ġgy 28620
.UTC 87069
áħ 124052
ieving 83346
.TIM 77306
æĶ¾å¿ĥ 104633
ĠBashar 70260
ĠSurf 64097
(exp 25865
å½ 14273
ãģªãĤĵãģ¦ 129303
/issues 38745
Ġperpetrated 92330
à¹Ģà¸Ńà¹Ģà¸Ĭ 138273
æľĢéļ¾ 116080
ĠAk 16358
å±±è°· 113599
ĠAlv 68946
æ¤Ģ 122983
ĉX 22123
Ġ@_;ĊĊ 61163
Ġwrath 63291
ĠÙĦÙĥÙħ 135109
ð¬®± 123080
Ø§Ø¹Ø¯Ø© 127386
è®²æķħäºĭ 118860
éĺĦ 120483
ä¼´ 99595
stderr 36422
ĠLÃłm 134330
-cr 47589
æĶ¯è¡Į 109796
ict 849
èĺħ 122009
-inch 24241
Counts 63731
+s 67797
.Subscribe 82628
Inserted 91269
calloc 65488
à¸ĭà¹īà¸³ 140303
ìį¹ 145462
ĠClimate 30536
æĶ¶éĽĨ 104412
éĹºèľľ 113006
Ġtráº§m 141631
ìŁĿ 146255
ĠØ§ÙĦØŃØ± 129395
_ASM 86906
éĹ¶ 122238
çĽ¸ä¿¡å¤§å®¶ 117500
è³¼çī© 113659
__)) 63553
ĉworld 76508
ĠGew 42678
ĠDWORD 20301
åĽ½æ°ĳç»ıæµİ 110996
-spin 80906
Ġmushroom 57366
ÎĻ 145035
.nativeElement 48829
Ġantic 87043
ĠDich 97703
Ġconsequ 12494
Contain 46522
ðŁİ± 149182
ĠÙħÙĪÙĤØ¹ 129436
æķ°åįģ 105959
paÃ± 142298
ĠsÄ±rasÄ±nda 137424
×©×¤×¢ 132022
Ġobten 63190
/widgets 42836
xce 55963
éĬ® 121483
å§Ķåĳĺä¼ļ 103984
.job 29270
Inf 19433
ç¦ıç¥ī 118848
ĠGram 28837
Ġpylab 78414
Ġcredibility 37669
ãģĦãģ¦ 124141
'It 74650
çĽĳè§Ĩ 112178
Ġigen 91229
ĠkhÃ´ 132190
Ġfour 3040
åĹĴ 120911
Ġholding 9963
Ġliberals 44650
ĠHASH 58857
ðĿĴī 148139
Ġcom 469
NdEx 46498
Ġfindings 14613
alertView 86609
âĳ 48312
_DT 60255
mana 47476
ï¼¢ 139173
ĠErrorCode 60084
Ð²ÐµÑģ 137014
ìĶ¸ 146497
ï¹» 148887
à¸Ĥà¸¶à¹īà¸Ļà¸¡à¸² 133164
Ġseem 2803
ãĤµãĥĹãĥª 137782
[MAX 18792
à¸§à¸´à¸ĺà¸µà¸ģà¸²à¸£ 132952
_trial 63486
Ġin 304
ATEST 61666
.todos 75874
ographs 66032
Ð±ÑĢÑı 126170
ãģķãģ¾ãģĸ 140415
HS 11961
Ġsalts 77135
à¸Ħà¸§à¸£ 126507
ä¹ĭåīį 101056
ç´Ļ 111906
.diag 91946
ĠDisaster 72278
Ġeverytime 89356
ogi 63877
åĬłå¼· 116836
åħ³èģĶäº¤æĺĵ 111918
ĉpass 41431
ĠExcell 49907
lag 13363
Ġ×ľ×ª 126329
fontsize 45801
IELDS 33459
æ°ĳèĲ¥ç»ıæµİ 117504
íĬ¬ 145615
lx 31447
å¯¹å¤ĸå¼ĢæĶ¾ 110707
(ab 56085
ï¹£ 149864
[row 16966
ĠAtlanta 19440
ĠTribute 95202
_BORDER 61235
alogy 79278
tridges 62831
çī¹æĿĥ 115899
ĠChemistry 41746
Ġcompartments 86252
ende 10938
æĽ´å¤ļ 99573
ðŁĴ· 148035
Ġcosmic 54701
Ġreminded 30156
.atan 71516
]): 24320
ughty 35516
à¹Ģà¸Ńà¹ĩà¸¡ 140964
ĠLicensing 72325
ĠUM 57122
rgba 20400
ĠPACK 33332
ĠWash 5985
atsby 35514
ussia 28478
Ã³Å¼ 57162
_tac 30626
åį³æĹ¶ 103260
_seek 74473
fÃ¶r 94961
Ø¹ÙĤØ¨ 136206
.column 12863
æĦŁè§īèĩªå·± 115770
Ġober 91245
Ġstared 44035
Ġunmatched 68377
Ġsingers 67041
åĿļæĮģä»¥ 108195
èĩªä¹ł 118734
ĠBOOT 83676
_enter 37480
ëµ¨ 150957
Ġselective 42910
.TRUE 74352
BM 28942
_MANY 97374
cbc 80766
abant 79283
pleado 32266
ĠResponseEntity 19803
Ġboosted 64108
Ġkur 27265
Ġmissionaries 85216
Ġnucle 30384
åħĥä»¶ 115088
ĠGr 2825
comment 6182
éĻįä½İäºĨ 110823
×ŀ×§×¦×ķ×¢ 131352
ëł¨ 125747
.RequestMethod 68940
è®¾ 29635
=label 98689
izing 4849
ðĿĲº 147023
å°ıåº· 103355
Ġadversaries 87391
\Modules 94398
ĠÑģÑĤÐ°Ð» 139426
birds 66361
wÅĤa 135251
oldemort 75063
(alpha 36618
rial 6619
zones 67534
á¥° 150567
æĬ¤åį« 117068
Ġ-* 8195
Ġorthogonal 94580
Ġsubstantial 11924
ÙĪÙİ 132201
Ġsprites 46757
ĠStore 9129
Friday 34620
enser 59444
ĠAlpine 81713
Ġdenn 51939
thest 60843
dma 44981
ď 203
Ġamong 4221
Ġcommodo 78324
Ġ×ĳ×ĵ×ĳ×¨ 139237
Ġneatly 62166
/Linux 94325
è¯ŃéŁ³ 105761
KNOWN 19623
arse 2583
until 38730
Ø¯Ø§Ø®ÙĦ 134651
Ø´Ø¹Ø§Ø± 137615
Idle 41370
åº¦è¿ĩ 106517
Submit 8890
ĠbÃº 137495
Ġcurve 15655
CardBody 94077
ĠYellowstone 95079
Ġtablet 20697
ĠStall 71870
ĠÐ·Ð½Ð°ÑĩÐµÐ½Ð¸Ñı 87512
_general 39177
æĹģè¾¹çļĦ 112638
å¥³ç¥ŀ 107697
.phone 24830
ĠESA 91643
ĠFlow 22452
à¸¸à¸Ķ 124151
íĤ¥ 145329
×Ĺ×ª 124812
å®¿è¿ģ 117446
æĿ¥æºĲäºİ 107904
Ġbehavioural 87879
Ġnieruchomo 140329
Forward 25925
Ã¡k 71442
distinct 53021
Ġambitions 50466
æĤ¯ 119393
Ġemple 61026
utory 36145
Ø³ÙĬØ¯ 133783
Ġvending 85044
Ġyuk 142725
amsung 14441
Ġfounded 18047
roof 75636
ĠKeywords 55695
Ġcombos 70133
/results 77174
Ġpesquisa 94630
had 31245
ç²¾å½©æĴŃæĬ¥ 117769
Ġburn 8231
Ġsáºµn 133691
');ĊĊ 3755
èĢ¨ 121700
ĠGrÃ¶ÃŁe 137208
Ġorgans 35753
(cls 20398
Ġmillis 57092
ãģĤãĤĮ 134139
Critical 42008
BOOLE 51105
cano 68277
_err 9266
ä¹ŁçŁ¥éģĵ 109898
Merchant 84545
hips 33222
ĠWeiner 93666
åĥµ 103390
ĠhÃ¼kÃ¼m 142799
Ġstrengthening 47413
ZN 44847
ĠFileWriter 55821
Ġpad 11016
Ġbroadcasting 48827
-. 14523
uis 9241
ðĿĺģ 148379
(add 25906
é¹³ 122095
éĻ¤å¤ķ 118745
Ġchá»¯a 130489
ĠMild 60189
rgb 16509
(Transform 83626
ĠÙĬØªØ¹ÙĦÙĤ 137961
Ġcells 7761
ifi 12919
éŃģ 111984
=t 24000
'en 40801
æĸ°äºº 102990
/open 37644
æ¥© 123159
ymm 64320
ĠSnapdragon 82055
à¸ĵà¹Į 124361
ĠGeek 70365
ãģĿãĤĵãģª 128820
.Format 9978
_rt 40169
áĭĿ 150504
Ġslow 6301
-fire 56269
fÃ¤lle 142845
íļ¨ 134166
amines 95981
Ġ×ŀ×¨ 129001
ĠÐ¸Ð½ 40978
ĠTextInput 42232
unan 64634
ëĪĻ 149436
åĳĬ 57555
_THRESH 34828
èĢģå¹´äºº 105448
éĿ¢ä¸´çļĦ 106791
Ùı 64604
hdr 28785
Ġlady 16820
Ġsuperiority 65632
Ġiterative 86875
âļ¡ 144995
Ġoraz 35470
iÃªu 132728
ITION 7092
_DER 96062
Ġbem 31915
$fdata 86841
ĠQR 38699
-yard 36739
Ã¤t 14033
)prepareForSegue 92782
ìĹĩ 127355
ÙĤØµØ¯ 140055
Ġhemorrh 70317
Ġpouvez 44266
ðŁĵ§ 147730
ĉTexture 83473
//////////////////////////////////////////////////////////////////////////////// 28226
-appointed 98363
stim 53654
åĽ½åº¦ 111707
ĠÐ±ÑĭÐ» 128897
âļĮ 147274
spoÅĤ 132531
ĠMatlab 97589
fort 3969
:UIControlStateNormal 34029
é¸¯ 119380
ðŁ§¡ 145739
(home 63194
.read 4125
ADV 90842
Ġ@{ 33267
.attrs 45496
Ġswift 29362
à¸£à¸«à¸±à¸ª 136890
ulnerable 92907
åī² 100958
.ncbi 98816
_REL 41207
çº¢èī² 104165
èīĭ 121469
MN 55181
ĠVarious 39641
ä½¸ 122329
.Board 83284
ĠSm 4388
Ġblasts 74041
_No 36989
êĴ¦ 148799
Ġscient 7182
æį®ç»Łè®¡ 109714
ï»ŀ 144752
Ġgiorni 85730
Ġtighter 62962
Ġunsuccessful 44925
:utf 55022
.cvtColor 54539
ĠShakespeare 41382
çļĦç¬¬ä¸Ģä¸ª 111597
paths 21623
ĠOR 2726
Ġproprio 65910
.LENGTH 15443
æ¶²åİĭ 109401
Ġgirlfriends 84512
è§Ĵåº¦æĿ¥çľĭ 115454
âĴ» 148788
agal 68112
ĠMeng 60054
per 712
ÙĤÙĬØ¯ 136503
ĠRosen 34020
"I 7044
iev 43091
ï¤Ľ 149294
ĠÐ´ÐµÑĢÐµÐ² 134818
VAS 62280
ĠGiriÅŁ 140666
åıĹçģ¾ 105533
Ġxbox 81472
-St 39620
.cd 55658
including 16169
ĉNode 30217
.ylim 76735
cron 69387
ĠXperia 85889
Ġmanten 89890
_PW 96740
Ġdad 17760
abling 18768
ĠSmart 15770
-Sah 92114
"D 61428
anded 6465
ï¶Ī 146650
ĠMagick 87154
'=>$_ 77406
æįĲèµł 106120
ì±ĺ 145982
ĠCASCADE 97059
ä¹ĸä¹ĸ 115009
_rng 66849
éĿŀå¸¸å¥½ 108014
Ġyoutube 27178
identally 56122
ĠIGNORE 81290
ĠKunst 80331
ĠBecky 87601
×ŀ×ĵ×ķ×Ļ×§ 141202
+++ 62730
displayName 46630
à¸Ĺà¹Īà¸²à¸Ļ 128620
é£¯åºĹ 112573
Ġresistor 77636
III 22615
(nr 89598
åĴĻ 103867
æĴŃ 75650
Ġoriginating 70273
Ġreflux 92162
åı¯æĦĽ 141878
ĉPort 98459
Ġdrowning 73437
Ġenhancing 46494
Ġremodel 45986
ĠZeus 74357
param 903
ðŁħ¶ 151375
_registro 91834
Ġaire 84108
é¸© 120259
.identity 31455
Ġisp 95297
_CT 72547
æ¿ĳ 121830
çĶŁåŃĺ 102281
à¹Ģà¸ģà¸´à¸Ķà¸Ĥà¸¶à¹īà¸Ļ 131557
regon 17103
ĠFI 50535
Ġpipes 31175
_UPPER 91703
ï¬¤ 151158
Ġparc 44640
Ġfacilitates 72533
Ġimprov 86670
ĠëĦ 65553
ÙĨØµÙģ 133842
ĠrowData 73658
_todo 87686
,:,: 58045
ĠEdmund 70811
ĠSz 44190
ë³Ĳ 147107
Ġà¸«à¸£à¸·à¸Ń 128404
DROP 46627
çļĦä¼ĺåĬ¿ 105057
Mil 59232
ĠNarrow 82311
Ġdeductions 70637
:");čĊ 67618
Ġzoo 40914
AsString 26582
indi 28685
ĠØªØŃÙĤÙĬÙĤ 132745
èµĭ 100970
Ġvilla 46525
-com 11476
.isLoggedIn 83870
":""," 60767
ĠSum 8116
ĠThreadPool 72716
.Scale 51832
methodName 58550
ç»ıéªĮ 100034
_subject 28834
ĠØ¹ 43982
ÙħÙģ 140904
Ġresizable 97083
è®¼ 102567
_make 28230
Ġimmobil 76341
-news 45251
ĠCSI 87064
ĠĠĠĠĠĠĠĠĠĠĠĠĠĠĠĠĠĠĠĠĠĠĠĠĠĠĠĠĠĠĠĠĠĠĠĠĠĠĠĠĠĠĠĠĠĠĠĠĠ 17648
Ġsignals 17289
sut 99020
krÃ¤ 144004
adium 13478
å®īæ£Ģ 116267
Ġcause 5240
ĠvÃ¹ng 129838
WAIT 71032
ĠIdentify 64547
idi 12278
ĠÙĤÙĪÙĦÙĩ 137437
9 24
counter 8292
Draft 50086
Ġì¤ĳìļĶíķľ 136361
è¦ģä¹Ī 106016
_MM 46957
ĠClean 9590
ĠClearly 53404
(reader 21987
Damn 95614
Bottom 11279
å½· 119723
}{ 15170
antics 36233
ç§ĳçłĶ 102180
pret 8043
Ġadjustable 35930
rÃ³ 82037
Ġinvolved 6398
ĠSMA 95896
ed 291
kÄ±r 130071
setFlash 62389
ãģ§ãĤĤ 71561
)$/ 99082
×Ķ×ķ×Ĳ 134081
ã³ļ 122520
setParameter 52004
å¹´æľ« 109702
ĠSPELL 47844
ropri 6160
åŀ 99189
ĠminWidth 56098
.transpose 35305
:", 12147
]._ 39981
å®¢æĪ· 100017
Ġ×Ķ×¨×Ļ 129933
Ġspeech 8806
ĉToken 33299
ì·¸ 147709
à¹Ģà¸Ħà¸£à¸·à¹Īà¸Ńà¸ĩ 125507
tab 6192
Ġhone 51022
Ġ==' 61807
ĠEld 26867
éħ¿ 101013
à¸Ĺà¸° 127333
ĠFrankfurt 55184
editing 61353
åĮ»åŃ¦ 104316
NSMutableDictionary 47618
æŁ³å·ŀ 115002
.addTo 61092
ikon 61614
Ġclimates 91299
è¯ĦåĪĨ 110683
.safe 52883
×ŀ×¢×ķ×ł 140622
ĠÑĤÐ¾ÑĩÐ½Ð¾ 136268
ĠyukarÄ± 142726
ĠInterpret 72077
Ġ×ł 123901
×Ļ×¨×Ļ×ĵ×Ķ 143000
å¸ĪçĪ¶ 107575
çº¼ 122275
(<? 77503
ĠsetActive 74859
_ij 70331
ĠPaleo 87407
.q 11354
ĠforIndexPath 98656
Markdown 68005
Ã©rÃ© 67762
Ġincumbent 50282
ĠkhÃ¡ng 138075
Ġmiá»ĩng 134214
Ġstrain 25716
Children 11539
Ġapprox 9848
ĠSTANDARD 76357
Ġnightly 74760
isLoading 54584
ĠÙħØµØ± 128748
ãģ²ãģ¨ãĤĬ 141463
ften 25061
Ġwar 4116
Ġê·¸ëĥ¥ 139456
gL 80130
ãĤ¢ãĤ¯ãĤ» 139650
-comments 77154
éĵļ 122828
ç§ 13869
ĉexp 48558
.attrib 48442
(&: 52031
@Entity 31091
Ġmerit 37459
ä¸Ģæĸ¹éĿ¢æĺ¯ 116659
çĲĩ 120555
Ò° 146630
Ġempath 35581
Ġ×ŀ×¢ 125128
rg 1984
åĢŁãĤĬ 132087
Ġ([ 11743
.panelControl 82849
_At 55581
ä¹ĻèĤĿ 116898
ìłĲìĿĦ 138913
Ġchief 10178
Ġbelieved 11585
Ġeverything 4297
CKER 72546
CString 63677
Topics 45003
è¿« 99994
ìĬĽ 146321
Ġdabei 49536
ðŁĳĲ 146519
Ġxhr 28282
TPL 77510
æĪĸ 57191
(sample 32968
ï»ļ 145273
ĠDefine 18614
Ġ| 760
ìĽĽ 149983
ĠBuchanan 84190
(signal 56782
æ¥½ãģĹãģ¿ 132203
é¸Łç±» 118203
ĠÑĥÑģÐ¿ÐµÑħ 141656
giene 42212
(([ 55283
<object 32264
live 24822
lobber 91397
pecified 44040
Ðĥ 144181
svp 80606
"display 91386
ìĹŃ 126346
ëĿ³ 149457
ëĦľ 146475
ĉwhere 55742
+', 60006
ĠBANK 66010
NSDictionary 24711
è·Łä½ł 107558
ĠFileUtils 59974
åķĨçĶ¨ 111966
Ġpháº¥n 142094
ĠìłľíĴĪ 138017
å°ıãģķãģĦ 138836
visitor 39985
æļĤç¼ĵ 118770
ðŁĶ² 149932
ĠSweden 23190
Ġhelfen 82197
Lesson 70404
Ġsmashing 82488
ROOM 50670
ĠparamString 49641
åįĪé¤Ĳ 111480
Ġiar 87721
Ġtechnically 31554
ĠÐŁÑĢÐµÐ´ 132419
ë¤Ĺ 149979
rotch 91478
ç¿Į 120824
ĠPeru 47747
åĲĮæł·çļĦ 107948
éĶ® 60949
uated 12852
Bomb 91726
çľ¼çľĭ 112688
_intersection 82558
Ġschizophren 50181
Ġvice 16774
Ġpositioned 34228
Ġrenaming 92890
ÙģÙĪØ² 133216
ĠFIT 7456
ĠMog 59921
ĠDPR 87901
ßĿ 148251
æĿ¥æºĲ 89161
})();ĊĊ 94345
Ġsurged 83907
ĠComing 39891
Ġdoubling 59015
Ġka 16502
å¼łè´´ 115239
")ĊĊ 5130
/license 43986
val 831
ÙģØ¯ 135494
Compatible 29161
Ġrebuilding 55128
dek 76273
Ø§Ø¹Ø¯ 126606
Ġfrag 8343
=[' 13987
builtin 42457
_QU 16332
stem 64088
fuscated 80247
ĠktÃ³ra 82121
annon 17436
åĲĮæł·æĺ¯ 111530
ĉtr 25583
Golden 59790
íķĺìĺĢìĬµëĭĪëĭ¤ 143959
ĠVisitors 68840
ĠsonuÃ§ 131900
Ġscen 7529
Ġsubdivision 59822
setChecked 64945
lex 2571
ĠBlaze 83427
å¾Īä½İ 111545
ajes 35450
Ġhum 2784
ì¦ģ 150312
OptionsMenu 47711
à¹Ģà¸Ĭà¸µà¹Īà¸¢à¸§ 143795
ĠOptional 12256
ç©¶ç«Ł 105159
_CUBE 91969
à¦ļ 148431
\\\ 81351
--ĊĊ 26469
ĠSal 8211
/W 22175
ĠHelp 11479
ãģķãĤĵãģ¯ 132873
Ġdiver 36341
scroll 12605
_OPERATION 44685
.existsSync 69833
Ð³Ð»Ñı 127857
VPN 55662
sidebar 18989
ĠNUM 15943
ĠSunder 72061
Ġdevastation 81915
Contracts 36352
ì§¾ 151032
Ġconsumers 13417
Ġfortn 83211
ĠgetEmail 67408
ĠÐŀÐ´ 132593
ĠÃ©t 13916
Ġnackte 62002
ĠÐ¿Ð¾ÑĢÑıÐ´ 142265
Ġwchar 41049
åºĶè¯¥æĢİä¹Ī 116228
Ġcosa 47513
ĠBulletin 59963
ĠRealty 68014
_UDP 75201
æĸ 7588
è¦ģä¸įçĦ¶ 116673
ĉhit 94778
Ø¥Ø¶Ø§Ùģ 130470
åŁ¹è®ŃæľºæŀĦ 110287
_Session 84664
-pane 38452
âĺĤ 145866
ĠPerc 51626
ĉsprintf 26434
.strftime 30214
CoreApplication 84479
çĳ· 123291
estimate 40130
ĠContractor 86518
çľĭçĤ¹ 110973
_mo 79258
Ġ[];čĊ 34327
ĠHod 50934
Into 26591
Unlock 49679
positions 27436
ĉK 39340
ĠInitialized 7590
éªĽ 121083
è£Ŀ 105290
okino 82434
ĠJenner 76064
ĠMeyer 47190
ĠWALL 78375
à½ĥ 147387
èĮı 119816
('| 47215
uity 34494
Ġusername 5934
èįĥ 120042
PW 68123
å°Ĩèĩªå·±çļĦ 111750
ï¾Ĩ 144694
Ġcellpadding 29104
Ġï¼Ī 42344
ä¸ļçķĮ 106459
_producto 58428
nej 35800
æĽ´åĲįä¸º 117394
ç±»ä¼¼äºİ 113080
Ġauthorization 23715
[G 72083
_LEN 15536
ä¹Łå°±æĺ¯è¯´ 105884
Ġobjections 53011
ĠCODE 13765
Ġà¸¡à¸µà¸Ļà¸² 142536
ĠLeslie 53683
×ĺ×§×¡ 141930
ç¿»å¼Ģ 117226
ificio 92638
Est 13782
ĠÐ¼Ð°ÑģÑĤ 135903
cascade 49900
Ġstatewide 50941
à¸«à¸Ļà¸Ńà¸ĩ 143493
Ġensuing 71658
-area 29022
.look 73034
Assigned 94025
ëĦ¤ 126730
ĠColour 40862
webElementProperties 32686
áĹ· 150547
ä¸īæĺŁ 106258
éĤ£è¾¹ 106505
Ġphotographers 47177
Ġ×¢×ķ×©×Ļ×Ŀ 133605
_Call 76028
ĠstartTime 22858
ĠæŁ¥ 69353
è®¾æĸ½ 100725
ĠMock 14563
à¸Īà¸Ńà¸ĩ 135658
ĠTribune 40339
Ġexplanation 16148
åĮĹå®ĭ 118041
æĪĺå£«èģĮä¸ļ 111937
Ġadherence 70528
Ġhomogeneous 86182
Ġpushing 17461
getLocation 87972
puty 16983
keys 10563
tribution 31140
á¹ĸ 150595
ï®® 151185
ĠAlberta 32554
-setup 78097
Ġgenerator 13823
/Product 77738
ç³Ĺ 121824
skill 29454
Ã©vÃ©n 138535
}"Ċ 11195
(bbox 87059
åķ¡ 102312
åĪĨæķ° 103190
ðĿĹĿ 147837
ĠExtension 26473
Ġresurrect 65719
IDDLE 48175
,Yes 97071
Ġsquadron 97280
.foundation 75595
Ð½ÑģÐºÐ¾Ð¹ 138527
Ġ}. 16908
.Collections 3572
Final 19357
_scheme 53293
ĉeval 93413
Ġglob 13206
ĠServ 26224
Ġtart 44815
ãģ»ãģĨ 131495
Ġng 7777
(pc 47080
,default 87696
Ġkutje 88343
Ġfiling 25480
Ġprostit 11197
.google 5713
ãĤĤãģĨ 128778
åĨ¶çĤ¼ 119006
ĠDiversity 64971
Ġthank 9702
<double 9869
jni 79114
wagon 93119
ĠinversiÃ³n 143142
!") 88783
é¼Ĵ 123433
èĳĳ 120873
irical 66866
Ġ×Ĳ×ĳ×¨×Ķ 143354
ĠSpiral 88788
owan 80231
Ġperformances 23675
isAdmin 72658
æł¸åĩĨ 110610
uming 29489
á¸ª 147685
à¤¥ 146489
Ġjuice 22815
Ġsep 21017
Chelsea 86306
å°¢ 122127
Ġsevere 15386
-- 313
ĠÅĽwi 127852
åĬłå·¥ 101130
blocks 21928
.flags 27203
pel 47524
ĠDice 56645
Ġindividuals 7775
ĉglVertex 39652
.fhir 91805
ÑĢÐµÑĪ 129825
Ġscal 24004
è¿ĳãģı 132769
ĠÐ²Ð¾Ð¿ÑĢÐ¾ÑģÑĭ 135693
OTHER 30267
Ġcyc 43348
NullOrEmpty 65973
ĠVARIABLES 76753
rove 50415
sÃ¤tze 140053
áĢł 150206
ĠOffers 51318
èĢķåľ° 109728
éĩĳèŀįä¸ļ 117668
Ġinclud 1798
rn 35622
çºªå¿µé¦Ĩ 114280
yte 78361
Temporary 59362
Ñ¼ 147288
éļ» 110048
_RCC 63011
-alist 80978
Ġadaptor 91941
:string 22423
>Action 88010
iger 7272
ÑģÐ¼Ð¾ÑĤÑĢÐµÑĤÑĮ 131028
ä¸Ģåĳ¨ 105309
Ġvas 43396
Message 2052
Ġrelation 12687
ĠRecommendations 88420
Ġboxes 14697
ĠStatefulWidget 37642
_CODE 10020
ĠÑģÐ»Ð¾Ð² 91107
clusion 8957
ä¹¡æĿĳæĮ¯åħ´ 105402
æ¯ıæ¬¡éĥ½ 114981
/gui 55202
ĠRomero 77387
åĵ§ 120367
ĠFact 36712
[x 8323
ðŁĸĬ 147949
Ġbd 21486
AdapterFactory 83055
getAs 91346
Ġpants 24549
à¸ķà¸³à¸£à¸§à¸Ī 133823
ãģĩ 128219
Ġundoubtedly 36948
ĠmÃ¼cade 133118
âĶ© 150140
.Char 10447
æ¯ª 120415
Star 12699
_ENGINE 62177
ç¶ļãģį 126135
Ġclique 80379
Ġolu 127079
å¯¹æľªæĿ¥ 113756
(IDC 65019
.* 4908
ËĿ 145052
éĻķ 101387
èĥŀ 100804
xpath 50151
ĠtoÃłn 128401
illÃ© 139041
ìĦ¯ 144191
èº«åĲİ 106374
Ġbr 1411
Ġvscode 55380
Ø§Ø³ØªÙģ 142900
ĠÐºÐ°ÑĢÑĤ 90634
ĠPerspective 69188
ĠFLASH 52326
ëĬ¦ 144211
ĠØ£ÙĬØ¶ÙĭØ§ 138195
elig 38467
à¶® 150231
));ĊĊ 3237
Ġaluminum 24649
_TOKEN 18681
ðŁĲ® 147631
×Ľ×ķ×ľ 124509
æĬĽ 102599
ĠpaÅº 138111
Ġthá»ĥ 128254
è¶Ĭéĩİ 110637
ä¹łè¿ĳå¹³æĢ» 111156
Ġinfuri 84125
ĠWen 61223
Ð¾Ð½Ð° 73728
Pop 11598
ç½Ĺé©¬ 107070
ĉbuttons 91209
_KEYBOARD 81164
ĠJSX 55496
à¸łà¸¹ 127074
å¤§åħ¨ 106126
.fft 79899
IO 3810
math 10374
ï©į 150194
Ġclicking 18458
ç¡İ 120620
Ġomas 94676
_constants 55642
Ġclerk 44257
Ġpantry 68257
aviors 22176
éĻįèĩ³ 112299
Ġsucceeds 50081
_mentions 30063
èįŃ 122430
íĮ¬ 144298
iado 96709
çıĬół 119347
ĠWedding 30817
hed 41009
Ġdeploy 10517
åĩłæ¬¡ 106065
/message 50624
ĠMaz 38991
Ġlavoro 65385
ĠÐ¸Ð³ÑĢÐ¾Ð² 138601
åľ°ä¸Ńæµ· 117564
Ġenjoyed 14006
Ġprez 79942
à²Ľ 150436
ADIO 42853
enge 6309
xAB 78146
("")Ċ 31764
ackson 19387
ĠsavedInstanceState 14724
Ġunn 16950
(\ 11520
ìĿ¸ìĿ´ 135227
Ġ*_ 19332
_GRANTED 63910
maintenance 98078
Ġ->Ċ 12381
.ops 46778
modifiers 91090
Ġ.Ċ 16448
ĠAlta 82060
èĻı 119331
Ø±ÙĬØ¹ 127580
ĠKre 29618
æīĭä¸ŃçļĦ 108671
-button 12444
åı£æľį 113492
å²ģä»¥ä¸Ĭ 114019
.interfaces 34459
Ġentender 95437
Ġrifles 45370
CRET 22536
mdir 69695
èĻĽ 112246
verages 42868
jet 15407
ogl 97247
Ø£ 69682
ç»Ĩç»Ĩ 113276
Ġanarch 43465
ĠdÅĤugo 133671
Ġleurs 42053
æĻĤéĸĵãĤĴ 134556
gages 55044
éĩįè¦ģãģª 138661
ÙĪØ¨Ø± 130945
ĠEmergency 31608
èĮĥåĽ´ 101121
ĠQImage 77427
Ġencouraged 20548
_gray 51331
æĻ· 120915
èŃ¬å¦Ĥ 112496
æ¶Īè´¹åĵģ 112717
ðŁıľ 149320
ĠAction 5586
Ø£ÙģØ±Ø§Ø¯ 136137
Ġburns 43054
ĠLamp 41177
Ġpronounced 37517
weeney 90269
Ġshed 24354
Ġstrategies 14830
enaries 84275
çµĤãĤıãĤĬ 139165
ĠÐ±Ð°Ð½ÐºÐ¾Ð² 141932
Ġ×ł×Ļ×ª 128694
Ïĳ 146507
äºĶåĽĽ 116487
Ġimprove 7269
_REGISTRY 93895
.t 734
Ġdirs 42248
ĠØ§ÙĦØ¯ÙĥØª 131203
selector 8925
ĠDob 64251
ÙħØµÙĦ 141120
å·§åħĭ 110547
ĠBrut 70725
Ġed 1578
Ġisr 93562
ĠsiÃ¨ 96639
Ġappalling 84805
dm 13849
_NONE 14904
.getIndex 75897
urpose 29249
æ¤į 100077
Ġchilled 83942
à¸Ĺà¸µà¹Īà¸ĸà¸¹à¸ģ 137770
ĠMohammad 64452
æ¸Ń 116230
ĠÅĽrodk 140340
_RUNNING 70246
å®¡æł¸ 90851
.emit 16812
×¡×ĳ×Ļ×ĳ 134026
Broadcast 43362
Pros 44915
ĠdÃ©c 34781
Ġexcluding 43778
Ġplugged 58229
Ġnajle 93007
ĠInsets 75367
åĪ°æĹ¶åĢĻ 110625
èĩªæĿ¥ 112208
ãĤ¯ãĥ©ãĥĸ 140544
è°Īè°Ī 112354
-Za 39279
ë¬¸íĻĶ 131655
ĠKitchen 19354
Ġà¸Ĺà¸±à¹īà¸ĩ 137406
effect 26061
Ġattacks 8776
con 443
à½ĩ 148226
Quant 44220
å¼Ħ 102115
ĠLista 53002
Ġgigs 77820
returns 4216
ÃŃda 91716
ä»¥ä¸ĭãģ® 138442
æľºæ²¹ 116165
ä¸ĬçıŃæĹı 117663
å®ŀéĻħä¸Ĭ 101359
ĠSierra 35803
_InitStructure 60099
*> 13004
ĠDEFAULT 11955
Ġnegative 8225
ĠyÃ¼zde 131008
oubted 33300
uchs 53152
åĲ¬è§ģ 108887
ðĿĲ¡ 148233
åĩºåľŁ 113524
lige 52790
_RULE 50495
_MENU 27648
ĠCenters 40891
FUNCTION 18149
ĠNext 9295
çľŁçļĦæĺ¯ 105093
(store 31200
ĠIbrahim 65633
Ġfiner 72786
ï¦ł 151139
Ġmoving 7218
Ġdefensive 16016
æĿĲè´¨ 106149
ĠcÃ¡o 129410
Ġricerca 82035
ĠQHBoxLayout 81291
Ġabsorbs 90011
Ġwhites 21874
à¸Ĺà¸± 124963
hf 44754
Ġjb 87118
toupper 87732
Caption 32123
Ġrect 7608
ĠØ§Ø¹Øª 134787
ĠReform 39265
Ġfabulous 34531
elman 63541
ã¬® 149713
ĠRaptors 73578
æħ£ 139734
Ġexample 3110
_STRUCT 30474
ä¼Ľ 119618
Ġmixture 20980
etal 21323
SelectedItem 75899
ý 185
.activities 64903
oted 9253
[NUM 73890
ĠÑĤÑĢÑĥÐ´ 129771
Ð² 5474
Ġoverly 38432
ĠAry 86310
âŀ¥ 145642
éħįä¸Ĭ 114530
ĠEgypt 14867
à¸Īà¸°à¹Ħà¸¡à¹Ī 134405
æ¥ļ 100785
éĺ²æĻĴ 113222
ĠAquarium 80322
Ð»ÐµÐ¶ 136682
ĠÑģÑĤÑĢÐµÐ¼ 140867
forcing 41496
ĠgetColor 73468
Ġvile 80214
):( 77410
Ġsalt 12021
DESC 30910
und 1241
ĠHEX 72221
ĠScandin 59180
Ã¼l 35524
Virginia 80596
âķĮ 149388
ĉsp 41378
ĠSonata 94351
çļĦå¦»åŃĲ 111252
Ġwireless 20739
ĠØ¨Ùĩ 81768
å¦Ī 99680
mapper 38076
Forms 20593
åİīå®³ 105127
****** 6824
Ð¾Ð²Ð¾Ð¹ 128939
Ġfailed 4641
_advance 98093
Province 51074
pat 4676
(Input 29773
?family 35738
ains 1735
åĬī 111070
æ¦Ħ 103589
æĬ¼éĩĳ 116088
iete 66860
lexical 93364
ĠASAP 66490
([& 80653
ĠShopping 28964
éĢ¾ 102911
âŀĻ 146881
Ġambassadors 95562
Ġmocker 93124
åįķèģĮä¸ļ 109804
ðĵĪ 148827
Ġcords 79617
ala 6053
æ°° 120969
Ġhome 2114
ç¬¬ä¸Ģä¸ª 102344
éŁŃ 103866
Ġ/************************************************************************ 97005
Ġclears 56598
Ġevolves 91954
è¯·ä½ł 112720
Ġ@} 93998
Ġreleg 58682
pig 89500
ï¼ĮåĪĻ 95053
#define 1441
ĠShock 46983
ç»ĪçĶŁ 117234
ä¸Ģç§į 101053
.bindingNavigatorMove 80225
Ġinfantry 54427
Give 35127
slug 15125
ãĥĪ 19674
Ð¸ÑĩÐµÑģÐºÐ°Ñı 133100
ĠVisit 19008
çļĦæĸ¹å¼ı 101990
ðĴĬ 151274
ê¹Ĭ 141680
Ġcela 44502
.guna 59709
ãĥĻãĥ« 127450
ĠParameters 13522
ÙħØ´Ø§Ø±ÙĥØ© 132623
hell 56095
Ïĭ 146714
å»º 25807
çļĦå½¢å¼ı 105446
ĠWroc 139221
ĠÙĪÙĦ 128827
à¹ģà¸ļà¸£à¸Ļà¸Ķà¹Į 135767
ä¨ 128237
ä¸ĵæ³¨ 102901
ç²³ 121286
Ġthreesome 68964
<U 36397
Ø¶Ø§Ø± 142164
ĠFRONT 81547
ĠerrorHandler 71073
.attr 12843
éĢłèĪ¹ 118285
Ġimpr 22540
Ġindef 36427
.each 14313
Ġperspectives 38455
åī¯ 99310
ç¾ĸ 122686
ð«ĵ 101029
_battery 81930
cla 53661
áī² 149560
åħ³äºİ 101888
:'# 54602
<int 4159
roid 1577
Ġcache 6500
MatrixMode 85238
ãģĹãģĭãĤĤ 135819
âĪĸ 150645
ĠKapoor 81369
INDOW 14524
à¸ªà¸²à¸Ĥà¸² 134463
ĉjson 30847
Ġreciprocal 86198
++]= 81633
há»ķ 137390
ambient 59614
ì³ī 147558
angelo 87910
ðŁ§ĸ 150041
Õ° 146515
<Account 77069
ØªÙĨØ¸ 126830
Ûĳ 147746
ĠTx 39850
è¨ĵç·´ 116474
Ġtrials 19080
JSGlobalScope 96458
estyle 37383
Ġrestored 27003
éĦĺ 123239
ëĶī 151433
Ġini 16806
(unique 53440
ailure 9373
ntag 94905
éĳ« 104906
Ø±Ùĳ 133080
åıĳè¾¾ 102765
Ġunavoidable 83016
éĦī 106520
ĠmÃ¤nner 64669
ailed 5687
à¦¿ 61356
Ġprophet 52504
locker 93414
ãĥĩãĥ¼ãĥĪ 141725
ĠÐ½ÐµÑģÐºÐ¾Ð»ÑĮÐºÐ¸Ñħ 141499
âĢľThey 45590
Ð½Ð¾ÑģÑĤÐ¸ 67642
.SelectSingleNode 82425
ç¾İæ´² 109700
(dAtA 78552
Ġ[];Ċ 5907
ĠUSB 11348
abe 8229
chia 89546
Ġproton 81486
Ġvowel 76181
bject 800
åıĳå±ķçĲĨå¿µ 110330
ä»¥åĨħ 108341
èİ« 100707
ÙĤÙĪØ§Øª 132239
Â³ 43201
×ŀ×ł×Ļ×¢ 141973
å¥½è¯Ħ 102959
åĲĮæĹ¶ä¹Łæĺ¯ 111733
æ²»çĲĨ 100730
ìĤ¬íļĮ 135504
ĠCarnival 77744
Ġd 294
Ġindividual 3842
Ġlure 56583
.Mock 24664
åŀŁ 122410
ð¨±Ķ 123623
owanie 54389
ClientRect 52602
æīĢå¾Ĺ 103236
ĠFunds 60188
anks 4039
nÃ§a 131059
ĠHÆ°ng 139203
idia 86700
Ġorchest 69884
Ġpriests 41863
Ġrit 21198
ĠpiÃ¹ 22765
Ġsuffered 16256
ĠÐ³Ð¾ÑĢÐ¾Ð´Ð° 131644
boy 17184
.mac 61825
flutter 14972
mente 12541
Ġmilano 41774
urgeon 80462
Ġimpact 5421
åĲ± 118159
ank 1180
çľģ 65770
à¸¨à¸²à¸ªà¸Ļà¸² 139943
ĠØ§ÙĦØªÙĬ 128261
ĠFOREIGN 81356
riage 8775
âĮŁ 147038
Ġawarded 21328
Ġexplored 35031
Ġinterviewed 29047
.sc 7685
ĠFloor 16581
áį¡ 149569
goals 84157
ĠGSL 97368
.gender 48337
(payload 26772
updatedAt 69289
ĠGreatest 61812
Ġprofessionnel 84405
APO 84240
OVER 49105
ÑĥÑģ 43055
_pri 85639
×Ĳ×ĵ×Ŀ 134910
à¸Łà¸¸ 131954
à¹Īà¸Ń 126859
Ø¹Ùħ 124423
unity 2439
ä½¬ 103602
debug 8349
æĥħæ³ģ 107671
é¡¾ 99846
ð¬Ń¶ 123618
/;Ċ 79795
ĉent 77655
ĠCatch 20930
Ġalist 95695
è°Īèµ· 116537
.Seek 76465
Ġchurches 29912
Ġmeiner 71126
ioc 73352
ÑĨÐ¸Ð°Ð»ÑĮÐ½ 127530
åĳ¼åĲģ 108030
Ġnl 20216
Ġsonic 71336
ĠÃĸnceki 143568
(clock 90911
ĠÃľye 137160
quine 47258
Ġuncertainty 26826
ĠCaucas 59432
.% 22445
âĬĸ 150658
lim 4659
å·¥ä½ľä»»åĬ¡ 115128
Ġanchored 77119
;", 32503
Checkpoint 92688
_buffers 54591
Ø¥Ø¹ÙĦ 132534
ê´¼ 149454
ÙĤØªØ±ØŃ 139277
addAction 57772
çĶŁæ´»ä¸Ń 102438
enus 37865
_OPEN 24070
èĲ¤ 119403
ãģ®ãģ§ 124378
SAFE 83788
Ġger 17239
-co 22471
<script 7734
Ġ×ľ×¤×ª 143647
Ġwiden 93315
äºĴèģĶç½ĳ 103927
-learning 70756
-collapse 24487
ater 962
=\"/ 98185
ĠCylinder 86662
oni 20783
-rating 79511
Ġ×ľ×ľ×Ĳ 128995
scrollView 49214
åŁİéķĩåĮĸ 112861
Ġcircum 10198
,v 14270
_aspect 80070
_bd 68499
ãĤ¹ãĤ¿ãĥ³ 137233
ëł¥ 28754
Ġonwards 59425
-induced 37873
ĉconstructor 43127
Ġfourth 11737
æ¡ĥèĬ± 107615
ĠBusty 85823
'an 61495
ĠProposed 98883
å®¢æľį 105041
ĠPlymouth 70998
Ġinet 49476
SSERT 7372
Ġkepada 76797
å¥Ĺé¤Ĳ 110649
Ġdziew 83504
ĠGTK 37379
Ø¨Ø·ÙĦ 142455
çĺģ 121277
"data 97115
={() 10727
åĲĦæľī 109100
ISTER 19522
.shell 84346
Tam 88452
ĠPB 30934
áŀĩ 147602
"" 3014
ä¸įåºĶè¯¥ 108902
ĠÑįÐ»ÐµÐ¼ÐµÐ½ÑĤ 44988
letal 45490
_null 15162
Ġwszyst 44827
à¸¥à¸´à¸Ļ 137358
è¯´æ³ķ 102869
èĻ¬ 119702
ĠHY 63252
Ġreductions 46211
criptive 40319
}))ĊĊ 93596
ĠMoran 92235
Ø³ÙĬÙĨ 125838
inp 42092
å®¶å±ħ 102192
).ĊĊ 3593
Ġcentral 8622
FEATURE 71913
Ø§ÙĦØ¬Ø² 136886
ĠUniversal 25500
ĠìĥĪë¡ľ 134584
ĠMaterials 30909
icare 80038
ĠBow 18436
+A 92480
çľĩ 120103
é¼ĵèĪŀ 110306
"></ 2000
Ġof 315
Ġhobbies 63305
]>= 73775
.Hand 35308
ð¬Ńļ 123198
Ġoxy 98590
_UT 87526
Corn 90541
AZY 73552
Ġ:" 34638
_Inter 79717
ĠImg 49930
ðŁĶ¹ 145116
> 29
cid 20558
ìŀĲ 25715
ĠsektÃ¶r 132655
arget 1284
Effective 67539
ä¸Ģæľ¬ 105663
ĠMultimedia 82222
ĠTheresa 42712
ĠbÃ¶lÃ¼m 127725
heimer 34080
åħĭåĪ¶ 113285
_icall 82384
äººé¡ŀ 113415
Ġliable 34373
à¹ģà¸Ļà¸§à¸Ĺà¸²à¸ĩ 140041
ä»¶äºĭ 108008
_DS 51901
Ġquar 36865
ĠÐ½ÐµÐ¼ 137966
å³ĥ 122357
.longitude 34270
æĴ¬ 119481
ĠHughes 40311
.Google 60393
æłĩçļĦ 107641
aven 5276
equipment 67518
Ġaveraging 43764
ĠFeed 28870
ĠRaisePropertyChanged 89330
âĪ 21704
ä¸įåı¯ä»¥ 108620
>'+Ċ 41909
åįľ 101755
á´ľ 146232
åİŁåħĪ 111685
.cx 69074
ĠSEAL 87579
ĠCLL 50296
ç»Ļå®Ŀå®Ŀ 117791
ĠBuddhist 46741
("../../ 36800
è¾ı 121168
ĠWARRANTIES 7427
Ġlaten 92532
ismet 90158
ï½Ĳ 144465
à¸Ńà¸²à¸Ħà¸²à¸£ 136267
oracle 69631
ãĤ³ãĥ¬ 138692
ĠMASS 92613
Mounted 90789
å¹²èŃ¦ 116858
é¢¥ 123738
_capability 89686
culture 69805
Along 49809
Putting 97904
æµĩ 103228
Ġcuring 96230
èĴĭä»ĭçŁ³ 115395
ÙģÙĬÙĦ 141876
èĤ¿çĺ¤ 106045
Ġê²Į 98927
é¹° 105312
ĠGobierno 84072
Ģ 222
alia 18848
æĲºç¨ĭ 115051
Borders 85037
æľįåĬ¡èĥ½åĬĽ 114656
Issues 85828
çī¡ä¸¹ 109494
çīĽ 100664
ISA 34201
å¿ĥå¾Ĺä½ĵä¼ļ 113165
ãĤĴè¦ĭãĤĭ 133056
merge 19052
å¹´å¼Ģå§ĭ 106695
Ġnatives 67373
Ġstop 2936
"}) 80154
çĶµæ±ł 100513
ç¶ļãģĦãģ¦ 141830
Ġdistractions 76449
Ġprobs 69370
ngine 70891
.exist 51042
ĠTownship 52667
(property 26637
ĠLocator 98653
_helpers 54473
ä»¥èī² 108780
||Ċ 90675
Ġ[@ 73879
">Ċ 881
ä»ħä»ħ 102630
èº«å½¢ 116770
ĠthÃ´n 138757
ĠJenkins 44136
plot 4469
çĭ¬ä¸Ģ 115021
é¢ĵ 118319
ð«Ħ¨ 122736
èĦļ 100037
Ġtriplet 98709
Ø£Ø´ 126047
ĠaynÄ± 129301
ĠUkrain 30604
Ġfuck 7820
Ġ{// 17154
å¥ĩæĢª 106097
_minute 76944
Ġdow 56487
ĠCentOS 95513
lichkeit 88185
æĢ»èĢĮè¨Ģ 117606
Ġvisitors 15255
Ġdecorated 36009
ĠSommer 79509
Ġgorge 97377
ãĦ¸ 148068
ĠÃ§eÅŁit 134149
Checksum 73190
ĠeconomÃŃa 142036
Ġgx 61033
ĠLynch 37106
å¤§åŀĭå¤ļäºº 117657
ĠHand 8536
ä´Ĺ 123338
ĠqueryInterface 94915
Ġrapes 95230
Cc 97754
ç´§çĽ¯ 118421
Ġgáº¡o 143692
ðĿĺ 123825
Ġ//! 17664
Ġmpi 58122
ĠCaj 95779
Ġgá»Ń 130505
ç³Ĭæ¶Ĥ 116402
ëĪĦ 131903
Ġordeal 73681
ĠSampler 98604
],Ċ 1259
èĢĴ 119583
ĠAde 62040
Blueprint 16203
.GetDirectoryName 91465
PAT 92485
ikes 12450
Ãĸ 63361
å®ĮäºĨ 106570
åı¤ãģĦ 139423
raud 97957
Ġ...ĊĊĊĊ 73900
Encode 32535
orative 62365
",""," 59859
JSON 5370
é©® 119309
çµ² 109407
Ġrates 7813
ibo 28846
ðŁĳĥ 147236
Positions 45793
nik 21490
ĠBlanco 98823
}));Ċ 33626
ĠWien 98886
.jquery 43719
Ġabducted 83445
ground 1951
Ġfim 52087
ĠktÃ³ 21342
ðŁĳ» 146177
Ġconceded 61587
Ġoppress 89738
Ġsinful 96627
éĢīæĭ 50102
YPRE 87823
omaly 83092
ĠuserID 35204
_plate 79366
_comm 25149
½Ķ 65291
ÑĥÐ· 130272
ĠShard 95366
_tracking 66105
.getType 23621
é²¥ 121651
service 7936
Ġquestionable 43278
Ġ?><? 79421
Ġgep 82942
áºĳ 150604
Ġunconscious 39611
Ġbast 31977
(prediction 90314
ãģĹãģ¦ãģĦãģªãģĦ 137009
Hotel 45574
ĠContr 34241
additional 35499
bitcoin 83910
Ġinformed 15987
è²·ãģ£ãģ¦ 138056
(selection 56361
ĠuwaÅ¼ 137800
éĹľæĸ¼ 110737
ë¡± 144371
ìķļ 149773
$db 23097
åĩĨç¡®æĢ§ 111076
è½¦ä¸» 105854
_slices 87288
ç»¿åŁİ 118005
ä¾Ŀæ³ķ 102076
ĠMell 60185
ëĴĪ 147013
è´£ç¼ĸ 110658
ĠProceed 40770
.ToInt 15071
Ġcollection 4426
_DIGEST 94901
ç»ĺçĶ» 106755
íĵ± 151089
Ġslag 66591
ĠBuilding 16858
Ġverify 10146
Domain 13636
ĠzÅĤ 58068
culator 20022
á¸ĩ 148548
ĠQFile 78970
(updated 61983
ĠStarts 47728
DSP 90732
Ġdetta 97197
Ġunauthorized 44471
ĠIgnore 38971
éĴį 119891
åįĬå°ıæĹ¶ 110070
Ġfullscreen 56927
æĭĪ 119801
âĤº 144068
(bottom 56718
å£ 44726
Ġreachable 68284
Ġstrings 9069
è¨± 100955
Ġabroad 22131
Think 38687
/types 20384
-processing 69193
ØŃÙĥÙħ 130400
ĉčĊčĊ 42625
.fixture 50536
:number 34040
×©×ª×Ļ 132271
CTest 76434
å¯¹åħ¶ 101592
ÙħØ´Ø§ 134201
ĠAlbums 86723
Ġitching 84975
Processed 82535
_inp 78887
_".$ 80511
çŀĭ 121592
Ġcunt 68701
ĠØ§ÙĦÙħÙĪØ³Ùħ 140496
ĠLisp 54975
ĠÑĢÐµÑĪÐ¸Ð» 136992
ĠAlicia 78902
Ġragaz 32433
_sleep 49393
_repo 37784
æĳŃ 121359
æ¯ı 73157
ĉIN 40166
Ġschedule 9700
è¡¥åħħ 104361
Ġeast 10984
ĠØ§ÙĦØ³ÙĬØ§Ø³ 132792
wind 19154
Ġsquid 89175
Ġadvancement 49825
Ġnovels 31863
/*čĊ 16360
Ġstri 5950
particles 68498
CERT 89431
ÐŀÑĪÐ¸Ð±ÐºÐ° 65127
ä¹Ŀé¾Ļ 113238
åĲįåĪĹåīįèĮħ 117107
åŁ¹èĤ² 104306
åŃķ 99983
æ°ĶåĢĻ 102730
Ġsamples 10469
çĲİ 122742
âĸ¹ 145543
Ġ---------------- 14393
Ġblogging 41992
ðŁļ¬ 149206
"text 66251
Ġconstellation 82386
ĠBedrooms 67730
åį¤ 112416
ĠmÆ°a 136733
plug 47474
Ġcodes 13912
ĠnÃ¤mlich 143525
ĠImp 14390
ĠsetBackgroundColor 79874
æĶ¿åįıå§Ķåĳĺ 110933
Ġmultipart 68058
è¯´ä¸įåĩº 114454
-bordered 31354
Ġbeiden 69791
mozilla 50345
ØªØ·ÙĪÙĬØ± 131403
å¹Ķ 121434
æĺİãĤīãģĭ 138950
éŁ© 101129
ä½ľä¸ºä¸Ģç§į 113963
ðŁĶĳ 147614
ĠHydraulic 80004
ĠØ§ÙĦÙĤÙĪÙħ 141397
à¹Ħà¸¡à¹Īà¸§à¹Īà¸² 134478
Animal 41415
éĽī 121229
æĹłæīĢ 108944
(decimal 71100
,},Ċ 59999
ä¹Łæľī 103943
èĮĨ 119826
.herokuapp 48169
à¸Ħ 40327
åĩºå¤Ħ 103714
ì§ĢìļĶ 137545
Mix 58083
vement 7830
PRESS 72530
aksi 37679
ĠØ§ÙĦØ´ 124209
ìĤ¯ 145832
çļĦäººçĶŁ 106472
ĠHundreds 72336
Ġirritated 83871
Ð¾Ð¾ÑĢ 139780
âĻĽ 145251
à¸ĸà¹īà¸² 125623
æħĪ 101530
Ġtasted 60480
landÄ±rma 142498
Ġbeginner 48948
.Pending 96624
(vp 91867
íĭĳ 151080
äºĪ 99944
inda 17416
ĠArduino 46669
ĠShed 94452
Ġinjust 97653
æīĵæĭĽåĳ¼ 116657
Ġscout 53494
ìĤ³ 149094
_HOLD 97553
éĽĨä¸Ńåľ¨ 110678
ĠDelaware 39738
Ġrelieve 47739
Ġ×©×ĳ×Ķ 131861
.omg 97630
angs 64487
Ġbreaches 68040
Ġwand 28710
celain 59142
ä¸ĵé¡¹èµĦéĩĳ 115201
.cost 39166
è¡¨éĿ¢ä¸Ĭ 113105
çĥĶ 122691
pline 31439
ãģĵãĤĮãģĮ 135643
ãĢĢ 22441
åĩŃåĢŁçĿĢ 117437
åĲķå¸ĥ 105737
æ½Ĩ 123395
navigationBar 82653
çĮ¢ 121007
ĉRTLI 79054
ĠCredit 16267
è¿½ç©¶ 103035
Ġspread 8865
breadcrumb 24234
Ð·ÑĭÐº 126990
Ġpossessions 52535
Ġprofit 11372
éļ© 123414
/Image 81265
zem 94133
ç¬¬ä¸ĢæĹ¶éĹ´ 105201
ëĹĢ 146344
ĠIllustrated 70061
ĠShip 26803
å§¥ 101852
é¦ĸåıĳ 107221
é¼« 123691
Ġpaintings 35592
Ġtung 84207
Parse 14463
.delivery 73085
ĠMin 3386
ĠNormally 51683
âĿĦ 145124
.HOUR 97947
Ġgiá»Ľi 128449
collections 51137
ripp 54689
(reply 51118
ildo 29945
çļĦè®¾è®¡ 105171
à¸ļà¸£à¸´à¸© 129048
áħŁ 150263
æģĭçĪ± 102932
ĉčĊĉčĊ 26097
è¯ī 99482
Ġagreed 7230
Ġejac 63614
Ġhá»ĵi 130344
_ORIGIN 97199
ì¹ľ 131344
Ġmicrotime 98471
Êĭ 147320
utilities 61134
æ¶īåıĬ 102031
âĽ¤ 151429
GP 24430
ĠØ§ÙĦØ±Ø¬Ø§ÙĦ 142841
_this 24868
ynchronize 52787
_md 32994
tracking 44553
programs 72953
ĠÐ¢ÐµÐ¼ 136623
%n 61543
Fn 24911
ç¥Ĺ 120255
zeros 35716
ëŀ© 144550
Love 28251
ç¤ºèĮĥåŁºåľ° 112775
Ġ×ŀ×©×ķ×Ŀ 136531
æīĢæľīæĿĥ 112970
TouchEvent 83944
(sol 80608
.CurrentRow 75521
__. 18725
_ent 27425
ucht 32030
Ġlst 18845
[property 76596
Ġlarger 8131
.level 20099
é£Łåĵģå®īåħ¨ 105597
Ġunlock 15055
ĠINT 9221
evice 63924
ĠAhmad 54317
Nich 85179
åĲĦç¨® 110466
tplib 94030
è¯±åıĳ 114298
ÙĤÙĪ 124359
ê½Į 146288
,Object 39457
ĠÃ¼nivers 137761
ĠListing 38764
ãģĹãģ¾ãģĨ 127692
)">Ċ 61525
Ġnik 75102
Ø¨Ø± 83827
fec 76526
Ġnovamente 86919
çĪ² 113870
çĪ¬ä¸Ĭ 116813
elementGuidId 88375
ĠDefinitely 59898
æĭ® 120016
é¢Ĩä¼ļ 111181
ĠBret 71677
Ġgoogle 11558
åĪĨè£Ĥ 110935
éħįåģ¶ 115140
())),Ċ 73727
Ġboarded 83469
æĬĹæ°§åĮĸ 118283
bound 10891
×ķ×¨×Ĵ 133921
ĠĠĉĉĉ 54833
.Points 89270
äºĶæľĪ 113202
Ġretrospect 76553
ÐĽÐµÐ½Ð¸ 143654
ĠÐ¿ÐµÐ´Ð°Ð³Ð¾Ð³ 142555
>(),Ċ 65766
ãĥĸãĥ© 127160
áīł 149559
ĠGdaÅĦsk 141845
áº¡ 20229
ĠSpam 81667
ĠMoral 88506
NSArray 24329
Ġcontingent 58475
Ġunre 37123
èĴľ 103306
ĠHQ 45255
ĠFunktion 71065
BG 37762
à¦¦ 148156
ĠSummers 79648
enaire 96720
iscopal 85205
Refresh 14567
è¯Ĺè¯į 109855
èľĤ 101594
ÑģÑĤÐ°Ð² 67274
ĠEW 62995
ledge 4890
ĠkaÅ¼dym 136439
ĠRelax 67585
éĹ 13058
.Sn 87066
/software 78727
Ã½t 96600
åĽ´ 99455
traffic 53987
ç¡ħè°· 118012
çĴĩ 116460
è½¨è¿¹ 111073
ĠHeaven 31350
blah 70614
ĠRip 35437
Ġháº¥p 131768
Ġsofter 63130
Ġzlib 81218
ĠìĿ´ìľł 132819
ĠcityName 96701
ãĤıãĤĮ 124940
mute 52214
PFN 74870
å¼ĢæľĹ 116095
ĠBlock 8362
åºĲ 111833
_tt 66740
ĠloadData 62432
_URL 8000
sales 29041
Ġ(;; 52489
×Ĵ×Ļ×Ŀ 130252
ĠdÃ¼ÅŁÃ¼n 126535
PREFIX 56588
(VALUE 98893
åħħæ»¡ 102216
Ġaccus 25508
Ġpain 6646
ÑĭÐ¼ 125033
å¤§èµĽ 104592
Ġrepaired 51734
ĠAy 23905
ãģ£ãģ¦ãģĦãģŁ 126774
æīĢéľĢ 102974
è¿Ļå¯¹äºİ 113423
identification 91577
amu 51972
×¨×Ļ×¡ 136729
Ġforthcoming 44664
ĠyOffset 81938
Walker 84892
Å¨ 144565
ĠEduardo 76554
itories 13427
Ġadamant 83288
Pts 90149
Ġconceivable 94783
Ġ×ĳ×¡×ĵ×¨ 136099
à¹Ģà¸¥à¸´ 141537
ðĵĥ° 151281
('', 23315
RIES 65549
_arguments 43433
Ġmenstr 53530
ĠCaroline 53391
ä»ħä»ħæĺ¯ 109372
ĠKir 25527
_equals 61664
ĠPre 4968
amar 15554
ĠHammer 36894
áĲĸ 150523
ĠmiejscowoÅĽci 143489
_RDONLY 66104
kb 21310
.LookAndFeel 93782
×¡×Ĺ×¨ 134053
.getInstance 9554
VALID 10044
Ġwhere 1380
(ws 57786
ÐµÐ» 12121
å±¼ 122159
=v 39254
Provides 49022
_tasks 32823
åī¡ 120491
Ġrevision 23578
Ġregardless 15484
Ġprofound 27155
æľīä¸ª 104627
Subview 13721
gu 8717
Ġcomponents 6813
Ġ×Ĳ×ķ×ª×Ķ 129272
ĠAssessment 36257
Done 17453
Ġinval 48044
ðĿĳ£ 146090
ĉdouble 8646
Ġsperm 39599
ĠÙħÙĲ 137489
èĬ³ 102261
getitem 59912
una 8565
styl 85588
ĠPere 72478
ĠStruct 16139
×Ĳ×Ļ×ł×ĺ×¨ 131338
Ġinvesting 24965
links 15880
êº 124581
Ven 58929
SPAN 67023
ĠUW 65616
Gratis 70495
)&&( 50869
PLICATE 76828
ðĿĲ» 146347
Ġdocuments 9293
ĠngOn 16305
Ã¡st 55403
astle 74430
Ġdisponible 54752
ĠÐºÐ°ÑĩÐµÑģÑĤÐ² 125902
Îı 147445
æĤ£ 99811
,unsigned 57420
oueur 71166
×©×Ļ×ķ 125824
Ġyog 41353
ĠAuÃŁerdem 141196
phetamine 65604
ÞĪ 149368
.changed 68216
aining 2056
ĠestÃ£o 56454
-master 50903
Ġmissed 13628
Ġunderscore 52109
Ġ×Ķ 69346
closing 85777
ĠSON 76412
Ġit 432
day 1292
orses 22434
.Cho 89057
AtA 54715
dÃ¼r 126700
Hack 75786
çĢ¹ 123752
Ġslick 49638
projects 17161
Ġprefer 10702
ĠWarner 31680
ĠAdd 2691
Ġweaving 83609
.assertIsNot 96367
é¦ĸè½® 117917
ðŁı³ 147233
Ġrecognized 14975
Ġindictment 46860
ĠPension 80457
Ġdib 41068
(normal 52080
Ġwant 1366
ĠØ§ÙĦØ¬ÙĨ 127214
èľĪ 119458
.running 57617
Ġtengo 66890
æĶ¶åĪ°äºĨ 111511
Contr 41437
artment 3195
inski 52877
ĠLate 35831
çļĦçħ§çīĩ 107344
ĠCanyon 40460
(http 19886
ãģŁãģ¡ 125565
ĠOrders 31836
ĠSaid 50124
TÄ° 135216
ĠimÃ¡genes 96275
Æ¿ 148275
ĠTravis 40710
åĵĴ 113572
èł¹ 122113
.framework 20997
Ġ/ĊĊ 91545
åĹĦ 121188
ĠDemon 32305
è¯¡ 103758
ool 1749
èĦ± 99694
ĠHey 27553
é£İçŃĿ 116665
é¹İ 123214
Ã¤nner 42524
åıĥ 101010
ANCES 84410
ê¿¨ 145132
ï¾ķ 145970
Later 29982
Ġviolin 62037
(Command 41422
kses 54009
Ġvariations 26244
ĠÙĨÙģØ³ 125759
uba 30429
ĠMumbai 34712
Ġtrium 91806
âĸ® 149049
digit 34934
Ġakka 51342
Ġhydr 44605
.styleable 72407
zers 59619
Ø¹ÙĤÙĦ 133543
SSF 47105
_SHA 38096
å¤©çĶŁ 108424
QUARE 52556
à¹Ģà¸ļà¸µà¸¢ 140191
è¿ĺä¸įå¦Ĥ 113741
abcd 68644
rhs 26408
yÄĩ 129460
ì©¡ 145263
ĠtextBox 19418
çļĦä¸»é¢ĺ 109151
Ġperceptions 50766
èļľ 120375
áº¥t 51358
æł¹æľ¬æ²¡æľī 113193
Ġinfluence 10173
àµ¼ 148979
ĠÐ¾ÑģÐ½Ð¾Ð²Ð°Ð½ 134067
_SUPER 86846
dv 37261
*L 86513
áĦħ 147493
=localhost 84551
ahun 29727
èĳµ 113439
|| 8484
/') 78664
ï¹¢ 151240
cube 45411
Ġskirm 95280
isseur 73508
å®ŀéªĮ 102140
Ġeffected 88489
áŁĶ 149582
Ġvolver 86362
/dashboard 41161
ĠÑģÐµÐº 143542
Ġerr 1848
(variable 45029
ðŁĽł 147615
Ġì²ĺë¦¬ 81058
Ð»ÑĥÑĩ 129287
ČĊ 68762
_listen 79286
Ġorganizing 34721
ä¸įä»ħä»ħæĺ¯ 106146
zens 18549
Ġnep 91534
Ġwatches 31760
Ġ×ľ×¦ 124899
åĲĦå¼ı 103511
ãģ¨æĢĿãģĦãģ¾ãģĹãģŁ 136523
Ġwrongly 71209
@Enable 58643
_metrics 37686
*/)Ċ 66535
æĸ°åŁİ 105856
INES 33608
æľīæĦı 108552
æİ¨æµĭ 117132
čĊčĊ 871
Ġents 36852
ĠHuck 78364
ICS 19100
×ķ×ŀ 123906
kk 19196
VocÃª 69286
Ġmotions 53145
ĠtecnologÃŃa 136037
ĠHyper 32732
å¤ļåĬŁèĥ½ 110523
çªģåĽ´ 116075
Gener 5531
çļĦè®¤çŁ¥ 110061
ĠWiFi 33307
ĠĠĠĠĠĠĠĠĠĠĠĠĠĠĠĠĠĠĠĠĠĠĠĠĠĠĠĠĠĠĠĠĠĠĠĠĠĠĠĠĠĠĠĠĠĠĠĠĠĠĠĠĠĠĠĠĠĠĠĠĠĠĠĠĠĠĠĠĠĠĠĠĠĠĠ 14642
.Series 37128
Helmet 87266
äº²åĪĩ 109010
scp 63063
utils 6031
è¯ĭ 119771
ï¾ĵ 145054
ĠArguments 27702
Ġmolecules 34615
bett 90957
Ġplayoff 19380
ĠØ§ÙĦØ¬Ø²Ø§Ø¦Ø±ÙĬ 141914
.iso 64760
icot 86437
.awt 6700
ASSERT 23808
à¦Ĩ 148014
á»±c 92302
éĻĽä¸ĭ 113998
ĠYÃ¼k 139257
âŀł 145626
ê¸ģ 145221
ĠÑĥÑģÐ¸Ð»Ð¸ 139865
Ġanxiety 18056
Ġdiá»ĩn 129054
Ġspear 40863
.newInstance 40636
Ø¬ÙĬØ¯ 131163
",' 38838
ä½ıåľ¨ 106789
ibles 20410
Calibri 73842
abd 85920
probability 87440
Hey 18665
umont 89817
Ð° 1478
éĶģå®ļ 109069
Ġ`( 48651
bert 9160
Ġcleaning 15826
Ġfishermen 73193
ĉmatch 47706
Ġëĭ¤ìĸĳíķľ 135392
çĤĴä½ľ 111465
Ġcrib 79011
ĠPháº¡m 136290
.maxcdn 78502
è¿ŀå¿Ļ 110665
contacts 29063
ĠTTC 87800
_controller 21600
quite 83170
<u 34837
çıŃåŃĲæĪĲåĳĺ 107332
mixed 56685
ĠfindBy 44459
ãĥľãĥ¼ãĥ« 139164
ĠManaging 48307
Ġsupply 8149
ĠManafort 57813
æĴĲ 119191
ðŁĮĺ 149919
Ø¹Øµ 134008
NYSE 67345
"])čĊ 80244
Ç® 149481
acct 95081
_secondary 77759
Äµ 147441
Ð¸Ð²Ð°ÑĤÑĮ 135966
Ġdetect 11140
Ð¼ÐµÑĢ 63034
.repeat 50973
Ġrolling 20097
ĠØ§ÙĦØ®Ø§ÙħØ³ 139307
íĿŃ 151115
(HaveOccurred 83844
.Restrict 90180
ç»¼åĲĪä½ĵ 110009
ĠOswald 89350
/pages 29078
Ġquestion 3405
-alt 33350
Ġseiz 33113
â¸® 149698
(cube 91117
rage 47368
åħ¨çĲĥ 100357
ĠElis 90086
æĮĤåı· 116173
âĭİ 150661
çĶ¨æĪ·çļĦ 107494
Ġcigarettes 33476
ðŁ§´ 150136
Ġmomento 30121
åŁºæľ¬ä¸Ĭéĥ½ 113850
äºĭå®ŀä¸Ĭ 104859
ĠVista 34612
ĠLIST 26966
antha 57869
ĠNer 65804
µľ 71481
JOB 74879
Ġkos 40397
è·³åĩº 114346
ê³¯ 147855
wifi 67281
à¦¯ 146834
ĉto 31709
ĠMilky 88719
mland 85694
åĪĽå»ºå·¥ä½ľ 117495
Ġbachelor 48583
Signal 26810
ÐºÐ°Ð·Ð°Ð½ 133066
Ġsturdy 44552
etsk 85774
èĬ±åįī 108498
Ġubiquitous 63464
edException 18826
getFullYear 96785
ĠBeginning 51850
Ġbestowed 94729
SG 7783
ĠVit 28460
_pulse 83645
ÐµÐ½Ð½ÑĭÑħ 129612
×ŀ×©×Ĺ×§ 130116
åŀ¤ 120020
ĠDevon 59334
ç¿ģ 108017
_SINGLE 39028
.Comment 56730
ĠErdogan 56089
ĠPrevious 28913
Ġsons 25350
à¸Ĺà¸³à¹Ħà¸¡ 134924
çŀħ 118094
= 28
outer 2676
ĠarrayOf 43254
Entities 15828
ĠÐ¿ÑĢÐ¸Ð´ 142895
æŁ´çº³ 117945
ĠBiz 61450
ëĨ¨ 144602
ĠGlass 20734
Pool 10551
Ùī 55057
Ġunique 4911
_FL 22588
Ġ×©×ĸ×Ķ 130424
æīįçŁ¥éģĵ 107661
\Console 44682
xDD 82331
ĠgetCurrent 40517
Ġrefs 43143
Ð´Ñĥ 124797
íĨ¹ 151075
ĠAgility 94719
Ġedt 80714
ĠDough 89295
("* 29592
ĠPhones 84575
à¨° 150418
Ġbá»ĳ 128888
ĠSERVICE 38086
è£ģåĳĺ 118238
ĠTextArea 88728
loff 93038
åħ¬å¸ĥ 101274
Ġshell 12528
ç©· 100572
Ġ×ĳ×ĳ×§×©×Ķ 143394
_TERM 75220
uggestions 37882
ä¸¥éĩįçļĦ 105806
åį°è±¡æ·±åĪ» 115895
ay 352
At 1655
color 3423
Ġ×ŀ×Ĳ×¤×©×¨ 134573
-door 57090
ĠHassan 59677
æĹłåģ¿ 114887
èªŀè¨Ģ 118732
Laura 76460
.rect 18766
æĦĪ 100939
èĿĵ 121615
ĠÙĪÙĥØ°ÙĦÙĥ 133950
UpdatedAt 72279
.nio 27465
Ġtransferred 22409
Ï° 148148
.export 41459
-tech 41257
æīĢéľĢè¦ģ 113521
Ġdwarf 49461
zt 11687
åħ»çĶŁ 105436
åİ¿åŁİ 105842
Ġ(),Ċ 84201
ĠOrganic 42937
_website 79032
ä¸ľåĮĹ 104756
Ð¾Ð¼Ð½ 127743
Ġbbc 90626
Ġactive 4541
Ġtweets 23150
corp 80727
Ġrecycl 91365
Matt 39817
ÄŃ 145760
Ġcopy 2975
bi 8221
à¸Ĺà¸±à¸ļ 128217
à²° 148414
.is 2079
âį£ 149651
æĦŃ 123263
å«½ 123504
.asp 57190
external 20921
ifecycle 19517
iker 24803
åĻĩ 123450
orus 29869
éĢŁåº¦å¿« 113011
Ġboutique 52085
Ġbuildings 13702
Ġcovered 9761
Ġpaired 34426
precio 47774
ÑĤÑĥÑĢ 126567
å¿ħå®ļ 107523
vens 21097
.lst 76740
ì¯Ķ 145185
Ġtimed 25182
ðŁĳĬ 145536
Ġdisciplinary 56215
ĠÄĲoÃłn 138120
ĊĠĊ 26809
ĠRestore 43820
userinfo 61510
Ġapartheid 91959
(withId 96806
(video 40742
ãĥķãĥªãĥ¼ 137088
ÙħÙĨ 123904
ç½ 15224
ðŁĲī 148713
Ġorbit 26507
Ġspar 79869
.AllowUser 58380
AGEMENT 61729
end 408
Ġpossessing 59562
requency 15845
Ġtutors 82932
ØµÙĪÙħ 140636
è½½ä½ĵ 105728
ĠKore 8062
.water 86523
Ġclazz 32472
Ø¨Ø§Ùĥ 134993
å½©èĻ¹ 112609
æĪĲåĬŁä¸¾åĬŀ 113457
ĉĉĠĠĠĠĠĠĠĠĠĠĠ 31044
ĠMask 19924
Ġlen 2422
(LogLevel 94931
.jav 53477
ĠLahore 98089
Grupo 83014
âĺ¿ 149053
ifornia 6574
Ġamount 3311
uÄŁu 127718
ur 324
ë§µ 144633
assium 48063
_booking 65165
WSC 95696
_DEN 66936
ItemImage 70636
åı¯ä»¥ä»İ 112255
Ġgiá»ĳng 130469
_optional 74644
çı· 122932
åĪłéĻ¤æĪĲåĬŁ 90999
-'.$ 61660
sg 1991
_IND 41003
ë²§ 145407
éĢĨè¢Ń 118691
ä¸º 17714
/title 81946
åºĶæĶ¶è´¦æ¬¾ 117467
ĠUIImageView 28968
(UI 54402
æł¡éķ¿ 102545
_language 29021
,opt 63140
Follow 12480
ÇĴ 145040
ê¸ 17730
ï»© 145355
.nom 61742
tableFuture 69629
æ´± 120219
ĠRows 61706
Ġ×ķ 123822
GUILayout 36811
éĶĳ 120963
ĠKingdom 15072
ĠPUB 76744
second 5569
ucid 72687
Sol 48812
.allowed 99150
à¤µ 145535
å¯¹çħ§æ£ĢæŁ¥ 113648
ĠØ§ÙĦØŃÙĥÙĪÙħ 126807
Ġprocessor 17654
controller 7152
Ġxm 55249
Ġredundant 47732
Ġlaws 6872
Avoid 52116
***/ĊĊ 75884
Ġadvancements 82687
Ġquella 78282
TokenType 75611
ĠÐ±ÑĥÐ¼Ð°Ð³ 142355
adox 39097
_loss 11193
ĠConverts 41729
ĠØ§ÙĦÙĤØ· 134848
ä¸ĸçķĮç»ıæµİ 113913
Ġespect 94270
WAY 41803
ï½² 144273
.Help 70882
ĠgetActivity 47934
å¤§çĲĨçŁ³ 117313
ì§¸ 83666
Ġtk 17162
è¿ĶåĽŀæĲľçĭĲ 109073
æĿ¥æī¾ 112469
ItemAt 54196
erts 15546
ĠÙĪØ¬ 130677
æ¯«ä¸į 101642
çļĦçģµéŃĤ 111408
Ġ})),Ċ 78384
ĠController 9771
Ġfranc 43479
åĲĮä¸Ģä¸ª 109626
ĠLip 41139
utura 78707
èİ¨ 120319
.backends 62465
ĠcrÃ©Ã© 140613
ogo 23500
pesan 96285
ĠCharging 89798
Ġalte 43908
ingo 27908
ĠUnicorn 94970
Ġpij 65234
$(' 36088
Ġ×¨×ķ×Ĳ×Ķ 136409
äºĭåĦ¿ 106909
Ø¬ÙħØ§ 140655
.Contains 11545
Ġvoz 84090
×Ļ×Ļ×Ķ 129780
ĠPOL 31640
Ġonion 37327
ìŀı 151014
åĽ 9722
_command 10811
Ġlocalization 52304
Ġmov 1974
ĠMuseum 16328
ĠDEL 23777
Ġestate 12394
ë¹ĭ 149761
×ª×ł×ķ×¢ 135174
âĻļ 146449
ĠComputer 17407
ĠCurse 70627
à¸Ĥà¹īà¸Ń 125104
èĤ¿ 101561
Ġseams 73688
Ġunidad 96722
Ġreput 42739
ĠØªÙĥÙĪÙĨ 129286
âŀľ 145170
Ġgratitude 45035
Ġzoals 83441
æĬŁ 119656
.xyz 55699
quel 41914
Nome 24565
Ġ×©×Ķ×Ļ×Ĳ 130381
Nguá»ĵn 143505
×¡×¤×§ 129037
Routine 73018
.ToDateTime 56063
\\ 3422
-proxy 83701
funcs 87482
ä¸ĵå±ŀ 108470
Ġmodulo 59864
Ġnouvel 34362
+'" 49001
_BT 53970
(mask 35306
Constructed 82765
ĠPenguins 74844
CX 65240
Ġswap 14291
#= 55943
Weight 8295
[file 70098
oned 19684
Ġzich 52419
recommend 66589
æĶ»åĿļæĪĺ 112508
(columns 38382
ä¼Ĭæĸ¯ 115597
$class 71115
ĠCv 52742
ãĤµãĥĿãĥ¼ãĥĪ 135869
ãģĻãģĵãģ¨ 135231
ĠAcceler 46905
.analysis 58197
íĭĶ 146196
Ġkhoáº£n 130042
å®ļæĹ¶ 113828
Ġselect 3293
åĥıç´ł 112502
_EVENTS 61357
Ġtruth 8046
avanaugh 34714
è¢Ĵ 120517
Ġketo 65534
ĠChan 41302
å¯¹äººä½ĵ 113357
*dx 96842
æĿ³ 119836
éĵ¶æ²³ 108627
ĉx 10225
ĠSqlParameter 21923
ĠMLP 94891
ĠprÃ³b 134276
csv 18104
pos 966
ĠÑĤÐµ 126515
ÙĦÙĪØŃ 140047
Ġplated 87133
Ġuntuk 19593
.average 61509
ĠvÃ¥r 96497
-collection 95609
apiKey 57371
volution 64172
ä¹Łæĺ¯éĿŀå¸¸ 110447
ãģłãģĭãĤī 129135
_WORK 34044
sa 9081
.avatar 36169
Ġcorruption 21252
posts 12664
Ġdiagnosis 22982
æ³°å·ŀ 117053
_audio 29688
bal 13313
GBK 82194
æļ 87299
ç¦» 99372
Ġgets 5221
_pkg 64739
alar 7934
Ġsheds 75939
ventory 7223
ĉreset 70343
åıªæĺ¯ä¸ºäºĨ 115729
Ġthuis 54284
ĠLotus 60169
Ġcafe 40930
Ġpayoff 84265
ĠUNUSED 68001
ĠWinning 72965
ÃĩÃĥO 74634
.AI 88778
à¸¹à¸ģ 124402
Ġuu 41179
ĠØ§ÙĦÙħÙĪØ¶ÙĪØ¹ 130989
Ġcue 49398
è§¦åıĳ 111916
.Packet 93971
Ġfoliage 79005
×Ĺ×ķ×ŀ×¨×Ļ×Ŀ 136726
.chrome 57886
_EMAIL 29548
Ø²ÙĬÙĨ 134428
åĹ½ 103299
ansson 80165
=h 54113
ì°© 135375
ĠÑĥÐ½Ð¸ÐºÐ°Ð»ÑĮÐ½ 140512
çĤŁ 122513
ĠMing 55883
wayne 89562
doÄŁ 127522
Å¼ycz 127905
èĥ½çľĭåĪ° 109523
affected 31057
)";Ċ 24023
äººå®¶ 104389
--;ĊĊ 58872
Ġcara 46934
alty 10026
ish 812
Ġvazge 143855
-design 46017
_pix 50646
_J 10598
æīĵãģ¡ 136505
}") 55961
ĠNever 14695
ØªØŃØ³ÙĬÙĨ 137536
Ġimpatient 73697
æ°´æ³¥ 104948
Ġdetector 31214
.ImageView 35630
getImage 63308
ymmetric 29459
åĪ¶æŃ¢ 112750
Ġ-------------------------------- 19728
Ġeffort 5041
Ġì¡°íļĮ 97167
ksiÄħÅ¼ka 143973
ç§ģãģŁãģ¡ 132734
Ġtransparency 27231
ç§ĳæĬĢèĤ¡ä»½ 111496
Absolute 27331
}[ 43389
Api 6563
])), 69068
à¸ªà¸ĸà¸²à¸Ļà¸Ĺà¸µà¹Ī 130846
ðŁĴ© 147121
ç¥Ŀ 100549
×Ĵ×ĵ×ķ×ľ 126665
Ġprov 2543
Ġconsider 2908
(delay 60344
_MetadataUsageId 67031
ĠManny 94155
lbl 31998
Ġ×Ľ 123845
_TRUE 14044
POWER 61336
ĠGreens 41591
ĠNope 85719
éĩıäº§ 113342
æĹłåħ³ 107173
ĠfÃªte 140738
Navig 98442
Ġbrewing 49159
Ġfighters 23202
Ġquits 69477
ĠÙħÙĨ 63237
ĠLincoln 24379
Ġepilepsy 69555
setBackground 90525
à°ľ 148792
ĠBCM 48220
Zen 85692
opening 67685
ĠBedroom 32855
ÑĥÑĢ 55415
éªĵ 120833
ĠÐ´Ð° 91810
ĠNinth 85758
[âĢ¦ 70198
Sab 76378
ĠOnly 8278
Ġliner 52988
ìŀĩ 144299
_INTR 43661
_low 23767
Seed 41471
ĠCGRectMake 32830
à¥ĭ 54575
Ġinteresse 95421
/Card 57489
Ø¬ÙĬÙĨ 134822
-mails 60220
Ġcerebral 59645
Ġoutbreak 30088
ĠyardÄ±mc 133345
ä¸ĸçķĮè§Ĥ 118889
Commerce 33408
osis 10704
æĹ©ãģı 132849
è¿Ļä¸¤å¹´ 115950
×Ĵ×ķ×ĳ×Ķ 127052
ĠOH 28722
Ġeof 76760
Ġpcl 51881
è¶ģ 103083
ĠÐ½Ð°Ð¸Ð±Ð¾Ð» 135805
Ġ×ľ×¤ 125050
XM 52337
ĠprÃ©cis 132971
å¤ĸåĮħ 110187
Ġnood 45795
Ġrtl 61060
_exec 18430
ìľĻ 145008
URT 87096
Similarly 67691
_; 23182
aktiv 73607
Ġdifferentiation 58938
elia 35929
ÙĨÙİØ§ 135830
ĠÑģÐºÐ° 131682
ĠMedi 91757
_Params 44656
kor 40717
antiago 42974
æĢ¦ 119960
ĠBooking 44176
PostExecute 65446
Ġcompares 42465
Capital 63593
Ġcontent 2213
_aff 48914
_order 7869
ĠRug 36350
Ġantigen 81989
Ġ}( 95916
ĠUSERS 90248
èįľ 120032
oney 2534
âĢĻen 51189
ĠApplying 89601
à·´ 147276
âµľ 147011
Ġwidth 2374
ĠÐĶÐ¶ 132657
Ġturnovers 80627
ĠëĤĺíĥĢ 135513
Del 16532
ĠAwards 22658
ĠCLIENT 40297
ä¹°äºĨ 105275
à¸ķà¸¥ 129662
Ð¡ 19311
SDK 31534
Ġ()=>{Ċ 73162
urally 41924
Ù² 145990
ĠChester 52412
explain 94344
ĠFHA 77740
ä¸½æ±Ł 113258
âŀ³ 146484
ĠMST 84280
(coder 69237
ĠWright 26741
})(); 81174
posted 43082
ì¼ł 145649
Ich 40369
ãģ¨ãģªãĤĬãģ¾ãģĻ 134491
æ³ķåºŃ 108943
_lang 17876
_signup 82005
executor 80787
Ġemploys 50142
.Mouse 19164
âĢĶa 27996
ï¿ 5564
addGap 23714
clientes 81644
ĠLegislative 67405
Ġdej 32963
Ġgalaxy 33161
expÃ©rience 132808
ÙĨØ¨ÙĬ 135186
é¡ºåºı 107684
ĠExplore 44052
Ġinducing 95711
.getElementsBy 19483
Ġcorrobor 78719
ì¥Ĳ 144475
Ġblockchain 17944
Ġirq 38269
"S 66310
ä¸įçĶ¨æĭħå¿ĥ 112662
ĠÑĢÐµ 124619
ä¸Ģéĥ¨ 105042
ìĴ 125420
ĉCreated 84062
vert 1621
"}},Ċ 48085
ĉĠĠĠĠĠĠĠĠ 23419
ĠIST 75458
ĠLakers 46496
ì¹¨ 130436
ĠTorres 54407
Ġangular 20314
ĠÑĤÐ°ÐºÐ¸Ð¼ 135536
çĥĬ 120490
Ġdescriptors 47517
TOP 25378
.Imaging 52862
ØŃØ¨ 126381
_root 12993
ê±± 144103
Ġ!Ċ 58062
Ġhá»Ļi 128410
ĠLol 79137
ĠupdatedAt 48831
were 51798
ĠArabian 72598
.words 55912
Ġpayday 52606
_DE 2881
åºĶèģĺ 109786
Ġgras 48987
.Param 9580
Knife 56405
.Department 83545
åľ°åĿĹ 106522
æºħ 115841
ĠPháº§n 137572
Tour 54950
*_ 55904
(cluster 48030
ĠTata 87145
roleId 97491
atial 22433
âŁ¿ 150725
åĬłåĪĨ 114908
Ġushort 43024
ĠÐ½Ð¸ÐºÐ°Ðº 134212
Ġê±°ìĿĺ 138313
(commands 71192
past 52420
ĠâĢķ 50653
ÆĲ 148410
LowerCase 12451
Ġ##### 68684
.splice 21383
çľĭåĩº 101687
umor 68261
ĠGI 48509
Ġ×Ķ×¢×Ļ×§×¨×Ļ 139626
Ġdegrade 95530
Ġháº¡ng 135303
AllArgsConstructor 64522
åģļé¥Ń 110878
ĠKennedy 23651
ìŀ¡ 132499
ðŁ¦¶ 149956
:CGRectMake 28509
ĠComprehensive 66863
ĠMacy 96273
UP 3124
ä½Ĩè¿Ļ 107607
ĠÙĪÙĩÙĬ 129308
Ġpacket 10151
.Valid 47156
adal 50488
Flat 31019
matic 37244
æĪ³ 111420
éĽĨ 42067
Ġalta 45362
pressÃ£o 135353
_growth 49182
ãĦĽ 150759
TRACE 33361
akedown 77245
fÃ¼hl 133666
âŀ¾ 147852
Ġheuristic 66609
Ġchronic 20601
ãģ³ 124406
ĠBrow 28377
ĠØ§ÙĦØ£Ø³Ø§Ø³ 139743
ctp 77941
atings 27689
çĤ¹ç¼Ģ 113438
`.Ċ 18639
ĠTestBed 17722
ëĿ¨ 146459
ĠcomeÃ§ar 139143
ã¤ĺ 119965
Ġliv 15120
ĠnÆ°á»Ľc 128301
ursor 3823
ssl 24635
Ø¬ÙĪØ² 135473
umpy 6752
ä¸Ģåī¯ 107110
ĉmesh 76045
ĠENC 72262
Ġinnovative 18199
Ġstained 60052
St 623
æıļ 113332
ĠstartPosition 98342
ĠØ 8803
_CONST 23098
ÐµÐ½Ð° 50312
-Language 90765
natural 52880
æŁ¥å¤Ħ 106416
Ġincorrectly 43347
ificantly 97764
idepress 58833
ĠProto 57677
Ġjaw 16535
ĠÐºÐ¸Ð½Ð¾ 138288
Clicked 21302
ðŁħĶ 150038
ĠATTR 37918
Mutable 11217
Ġgee 56505
ï»¸ 146504
ĠÑģÐ²Ð¾Ð¸Ð¼ 136173
ĠGos 62381
Ġmighty 41627
ØªØ¹Ø¯ÙĬÙĦ 134414
Ġwatched 15384
_allow 55731
(doc 19153
è¯ĵ 119972
_SUCCESS 8827
éĢ¶ 120712
ëĹĦ 145495
{{ 2979
×Ĳ×ķ×¤×Ł 136769
ãĢĳ 10958
Ġkvin 40061
ĉNamespace 90823
INTR 79079
ä¸ĭéĽ¨ 111926
ĠnhuáºŃn 141581
Ġode 72894
ãĥĿãĥ³ 137089
éľĢæ±Ĥ 100354
Ġisolate 42123
PLIC 36435
_atoms 67755
éħįéŁ³ 118809
Ġwes 97168
.attack 61611
æŁŀ 120064
ĠGPL 22942
urable 18329
åĪ¶ä½ľ 103963
pek 87176
_videos 83791
×ŀ×¡×ŀ×Ľ×Ļ 142382
.ef 95856
æ°ĳæĹıæĸĩåĮĸ 118519
æºľ 108051
()ĊĊ 2822
Degree 58767
Panel 4381
otle 50526
åĿ¦ 100322
è¿ĩåħ³ 116258
ëĨĲ 150882
çĿĦ 120906
replace 8156
Movies 40079
agen 8535
ĠAnthem 89132
ä¸įå¤§ 105378
Ġcardiac 46245
à¸ģà¹ĩà¸Ħà¸·à¸Ń 132973
ĠSilicon 37150
Ġshape 6083
Ġany 894
Ġcasc 74957
ĠTrot 89230
Ġstartup 20567
ĠÐ»Ð¸Ð´ÐµÑĢ 142951
ĠMistress 96029
tc 10413
ÙħØ³ØªØ´Ùģ 137589
Ġplenty 11260
Ġprospects 26851
à¸Ńà¸²à¸ģà¸²à¸£ 130733
éĤ£æł· 104323
Óį 150372
htags 25285
initializer 46774
Ġexiting 44748
Jer 43957
ç®¦ 121451
Ġfiller 54710
æ¬¢è¿İ 100437
Ġstrategist 64135
icie 76277
à¤ĵ 148570
ĠLÃ³pez 90975
unch 3185
ãĤ¯ãĥªãĥ¼ãĥł 139213
å¼¹æĢ§ 107874
×Ĺ×©×ŀ×ľ 133730
_NULL 18119
$s 16337
Ġheg 89403
×ŀ×Ľ×ĳ×Ļ 137428
å¼ĢåºĹ 110805
Ġterrorists 28231
_Login 79232
ective 95878
Ð¿Ð¾Ð»Ð½Ð¸ÑĤÐµÐ»ÑĮ 134853
ĠExamination 71494
togroup 82861
ĠFile 2887
Ġminimalist 71670
Ġ~= 21684
×ķ×ľ×Ŀ 124907
qualities 82365
organ 8462
Ju 62604
Ġcongen 81966
.comments 45074
.weapon 60427
å¾Ń 121242
istributed 25146
[tag 80039
ä¹ĭäºī 118031
Ġbouquet 91613
Dom 22812
_arg 6057
-m 1448
çŁ¥è¯ĨåĪĨåŃĲ 117197
áĭĽ 150503
ĠCompletion 56250
ç¥Ģ 103651
Interceptor 32786
ĠVictoria 22417
åĪĨæľŁ 111521
_PAGE 19971
é²¢ 121649
ðŁĺĸ 146387
.Context 9328
à¸ģà¸İ 126050
ĉfp 65219
ĠRadi 34869
ugins 6840
bite 89935
_phr 57729
oho 95286
å¬´ 121822
åıĳå±ķä¸Ń 107320
irk 14136
ĠNOP 86376
Ġë§ĲìĶĢ 129907
ĠWid 47640
ĠHorror 51712
Ġadaptations 76665
Ġwz 62920
ĠNit 49516
å¯¼åħ¥ 111929
æ°´ç®¡ 112044
ÙģØµÙĦ 131645
obj 2295
ĠPosting 78673
ĠØ§ÙĦÙħØ§Ø¯Ø© 138324
getMethod 90161
ë³ľ 149756
(Group 79535
ðĿĴ° 151310
Ġacab 66062
pard 61643
ĉplayer 24574
fare 23051
ä¨° 150811
RESH 21221
ĠPalo 84151
Ġpersone 60688
à¸¡à¸°à¹Ģà¸£à¹ĩà¸ĩ 142719
Ġhabitual 83720
ĠZh 33349
(site 47494
useppe 92003
çĽ®çļĦåľ¨äºİ 114799
.tight 75229
Ã©rer 51324
éĶĢåĶ®äººåĳĺ 117473
ĠApply 20552
ĠBenghazi 67768
(send 47617
.Dependency 49918
actory 2919
ãģķãĤĮãĤĭ 128609
Ġmelhores 94363
à¹Ħà¸£à¹ī 136960
é¥¼å¹² 117497
uits 11797
getJSON 79031
igail 84206
ULAR 7081
æķ¦ 101646
çĩł 121827
ÐĺÐĿ 140838
ĉfree 16959
Fun 30855
_pg 58681
.currentPage 52909
_UTF 55061
/grid 77341
åŁºåĩĨ 109371
Ġmask 6911
ĠRAD 74150
è´¨ 99178
ç¾² 119194
Ġvoxel 60184
éºĹ 103506
æīĵåį°æľº 117648
Ġmáº¡i 131537
Ġimpressed 24404
<V 21420
Ġposted 8454
é½Ĭ 114016
_CLAMP 88309
à¸³ 75069
ãĥĲãĤ¤ãĤ¯ 136358
ĠÐºÐ°ÑĢ 129297
ĠNorth 4787
âĵĦ 150681
Count 2507
æ¯µ 123115
ĠÄĳá»ĳi 128421
æĸ½å·¥çİ°åľº 115521
_HE 7867
enga 74575
Chat 15672
.getLongitude 97370
resse 21797
æ±īæĹı 114778
PB 40637
æĹ¶éļĶ 115859
-private 65277
éĩĳèŀį 100015
ä¹Łåı¯èĥ½ 108542
Ġgamers 34743
(comment 39327
-------Ċ 35208
current 3231
Ġthick 12045
ĉtile 89895
ivityManager 69557
åĩłå¹´åīį 115788
ĠDepos 77050
faculty 85168
ĠEdward 21891
Ġattendee 93565
ä¸įåħģè®¸ 110263
å¢¦ 123427
_ETH 79667
ĠRap 22300
ðĿĴŁ 147229
ĠÐ´Ð¸Ð°Ð³ 143756
(fi 81970
âľł 148065
à¸Ľà¹īà¸²à¸¢ 140524
Ġembarrassment 58930
_log 5224
_days 28353
á¹· 150600
outers 66095
à´ 33739
(Position 61843
.batch 23932
_dec 13783
elivery 72871
Õĭ 150380
×Ļ×¢ 123966
Ġrestarted 80654
ĠuserData 34385
äºļè¿Ĳä¼ļ 118463
keyword 19863
ä¼¤å®³ 104229
.CheckedChanged 72118
Ġoriginals 85590
\widgets 61799
Ø£ØŃÙĥØ§Ùħ 139655
ØµØ§Ø¯ 130248
ĠDAC 39196
Ġbark 53742
ä¸ĸçķĮ 99489
æ¨¡åħ· 108517
deg 16508
å¿ĥçĲĨåģ¥åº· 114309
ĠGlen 39961
ĠkardeÅŁ 136160
EMY 63442
è¢«äºº 105730
UFACT 91606
longrightarrow 55042
Ø¯Ø³ 133040
Ð½Ðµ 78762
ĠEh 60551
Ġsteal 26571
cen 47322
eceÄŁini 136757
åĵĵ 120112
Ġbeverages 46397
Ġopener 35153
.persistence 10305
Dummy 43344
ãģĭãģĳãĤĭ 137976
ĠproducciÃ³n 91036
à¸²à¸Ļ 123895
æľįä»İ 112590
Ġsuffice 76156
Else 22971
×Ķ×ª×Ĳ×ŀ×Ķ 142415
ASCII 56450
å°±åĥı 104092
/ml 59548
>C 25630
âĮľ 147037
ìĥĿ 76435
Ġdare 32204
åĲ¬çĿĢ 110311
';ĊĊĊ 20707
leases 28299
çĥŃçº¿ 105534
Ġcq 85822
ĠĠĠĠĠĠĠĠĠĠĠĠĠĠĠĠĠĠĠĠĠĠĠĠĠĠĠĠĠĠĠĠĠĠĠĠĠĠĠĠĠĠĠĠĠĠĠĠĠĠĠĠĠĠĠĠĠĠĠĠĠĠĠĠĠĠĠĠĠĠĠĠĠĠĠĠĠĠĠ 39484
")!= 98398
à¸Ķà¸Ļà¸ķà¸£à¸µ 141272
_inv 19996
ä½ķãĤĤ 137311
LANG 20000
ĠPRODUCTS 87290
ĠNorwich 83123
(dm 85677
_shapes 71315
á¿´ 148912
æ§Ĳ 113745
çª 90639
éĥª 122613
ĠfieldValue 95084
Ġmonstr 65504
.SendMessage 66330
ä¸¤ç§į 101441
ĠÑģÑĥÐ´ 126869
IntegerField 69613
ĠMuch 23309
â²ŀ 147780
Ham 39941
_IA 87490
âķ® 146219
åĪĿä¸Ń 105328
é³Ĳ 121996
Ġconcurrent 34035
sss 84160
æ¸ħç®Ĺ 111227
ĠmiesiÄĻ 141347
Ĺı 23444
Ø¹Ø¨Ø§Ø±Ø© 139389
Ġê°ĻìĿĢ 129381
imple 6456
å¥¶ç²ī 107706
æĹ¥æŃ£å¼ı 115582
å¯Ĥ 101749
ecessarily 73653
_EXTERN 37743
unused 24713
¿ 123
ãĥıãĥ¼ 138879
ĠScreen 13948
dataProvider 35498
_dark 67937
getPost 64997
à¹ģà¸Ķà¸Ķ 141738
åı¯èĥ½ãģ§ãģĻ 136478
airobi 83452
(None 26717
íľı 149804
`ĊĊ 19324
Ġmonopol 74153
æľªçŁ¥ 109259
istringstream 82416
Primary 15972
MA 4835
æīĭæľºçīĪ 107708
Ġrel 1351
Ġspinner 35491
Ġabyss 87214
ä¸»æ¼Ķ 107119
åľ°åĿª 118863
Ġaudio 7699
Ġdesks 75815
Ġglamorous 75914
Ġdy 13955
enzyme 64628
(position 12470
ìĺħ 146025
Ġsig 8366
_DECLS 94631
Ġpumped 61354
(en 45608
Ú¶ 150229
ð¬¶¨ 123653
:l 88397
ĠÐ¿Ð¾Ð¿Ñĥ 133050
_rw 49566
ĠPlug 52809
ï¤ĩ 149293
åıįè½¬ 115679
ç½į 123766
---------------------------------------------------------------------- 53264
à¸ªà¸·à¸ļ 139473
éĦĮ 123076
_engine 24823
cancellationToken 95470
åŀĥ 100476
.cards 44718
ç»Ļå¥¹ 106967
Ã©c 19667
åŃ© 99406
ì±ķ 145397
ĠLois 83946
QT 43678
Ê¦ 147529
âĹł 146353
ãĤĵãģ§ãģĻ 124699
versible 64298
upakan 73736
ĠTecn 87220
à¸łà¸²à¸ŀ 124389
Orig 62726
á»Ĺi 84453
Ġcentroid 58119
Ġ×©×ł×Ļ×ª 139259
×ķ×©×Ļ×Ŀ 134942
Ð³ÑĢ 124672
ĠnewPassword 75838
Registro 53798
})"Ċ 92349
xC 12125
æĶ¾å¼ĥäºĨ 111433
éĢīåĿĢ 112095
éŃ 99281
neau 82253
ĠCarbon 21487
Ġphoenix 89715
Ġsmoother 60305
.grp 94758
íĸĶ 151103
Ġpilot 17708
Motion 40338
ä¸įåı¯æĢĿè®® 113325
æ¶Ĥ 100286
(sin 89383
:last 67692
ÙħØ¹ 124363
Ġflourishing 98259
too 36127
ĠÃľ 30512
Ġwatch 3736
BeNull 60360
é¢Ŀ 61191
ĠDesigner 15569
WINDOW 40156
ĠEaster 32400
getNum 83044
inburgh 36786
ðŁ¥Ł 149213
Ġlandmarks 59924
Ġpopulace 93820
Approx 69520
ĠChinese 8453
ĠKami 98866
å¤¢ 108483
ĠReplica 94036
ĠbáºŃc 138270
å°ıé¢Ŀ 118906
ĠANAL 65757
dimension 42539
ecause 6631
Properties 7903
Ġfinancially 37975
Ġ,$ 86794
Ġmicron 94209
ãİł 147625
Responses 70743
æ¢ģ 101965
Ġwomb 72837
ĠTwilight 51045
Ġfederal 6775
Ada 95347
InitialState 80425
Ġsliding 33832
ĠØ¯Ø¨ÙĬ 137373
\Session 69608
upuncture 68462
Ġground 4910
.Direction 47282
for 1958
Ġneedless 96830
_responses 81292
ĠÐ¿ÑĥÑĤÐµÑĪÐµÑģÑĤÐ² 141861
â¼¥ 149347
Ġws 17624
(SDL 49957
ĠÙĬÙĪØ³Ùģ 141174
ĠdotyczÄħce 138091
åķĨåĬ¡éĥ¨ 110685
ĠCur 12886
ĠPowell 43009
åħ¶ 41146
ÅŁim 127468
ĠFormal 79367
_fk 65886
_dis 9932
this 574
ĠÑģÑĦÐµÑĢÐµ 142729
Michael 25516
ãģ¨è¨Ģ 125282
.pkg 83088
åīįæıĲæĺ¯ 114168
Ġ&[ 44590
ÑĥÑī 42193
ĠKu 32379
_attention 75825
ĠSqlDataReader 65511
æĶ¿åįı 101617
Ġrodz 79541
ĠEdited 65789
ĠSek 49241
Ð¿ÐµÑĢÐ² 139770
Ġteh 79906
×Ļ×¨×ķ×¢ 127804
åĲ´ 103948
ĠFar 13452
IVEN 66957
ĉdst 52051
Ġmies 78581
Ġ})ĊĊĊ 61277
_CLASSES 69164
èĴ´ 121138
ĠMu 14787
ĠAss 2688
Ġpartially 25244
rido 69549
ãĥ¡ãĥĩãĤ£ãĤ¢ 139460
ĠScarborough 85432
Ġdicts 97599
ĠMotorola 62490
Ġca 2162
_WRONLY 88649
Ġåķ 78971
resh 2488
'))ĊĊ 24825
fh 31104
_STRING 12283
éĢĻäºĽ 105008
×Ļ×Ľ×ķ×Ł 133004
ĉtexture 83307
çĽ´æµģ 114550
.glob 44371
.Serializable 23713
Ġmembres 77857
ĠÐŁÐµÑĤ 140710
touch 22020
å¸Ĥåł´ 106238
ê·Ī 146033
ĠChandler 60348
Ġbarely 19460
ĠwiÄĻkszo 143022
åĮºç®¡å§Ķä¼ļ 118703
Ġdepress 38200
.HasValue 40299
çļĦåıĺåĮĸ 104896
crate 61711
éĥģéĹ· 114657
ĉpacket 68802
å½±éŁ³ 115608
ĠALOG 79803
äºĮæ¥¼ 114437
/vnd 42701
ĠCONF 45189
").ĊĊ 80984
ÐĽÐµÐ½Ð¸Ð½ 143655
Ġbeste 28822
Ġgerne 54064
ĠIbid 75468
waÄĩ 127216
ĠÃ¶rnek 136236
å£°æĺİ 82641
anyahu 41559
Ġrely 17188
_unix 80572
è¿Ļæł·è¯´ 113041
_setopt 23533
Inicio 46768
Ap 10611
Ġmáº¥y 132222
Rank 22550
æģ³ 113717
Incoming 97564
maktadÄ±r 126391
Ġscientific 12344
á»įi 125529
íĽµ 149254
Prop 2008
__(( 30409
ACCESS 55749
learner 93595
fait 63865
Ġlabels 9201
Ġtavern 90135
ä½© 101453
Ġpermit 11549
atur 2628
åľ¨æĦı 107362
ç¬ĳç¬ĳ 116423
é¸¤ 122364
Ġesports 80450
"]== 95345
ĠWatt 58975
Ġnightclub 69732
interesting 87557
ÙĬÙĪÙħ 132694
æĦŁè§ī 100681
Ġstressed 31547
_DELETED 85921
æ¬Ĥ 123736
Ġanytime 29094
Ans 69599
Ġ{| 40960
Ġjit 84573
:L 69233
Ġdebts 44205
åŁİå¸Ĥåıĳå±ķ 115106
abol 52804
buch 72043
ogne 95341
×ŀ×ª×Ļ×Ļ×Ĺ×¡ 143080
è¯ĹæŃĮ 107604
Ġ>>ĊĊ 56948
ĠCDC 39309
Feedback 35348
ĠSocket 20954
éļĲç§ģ 107120
Ġ...ĊĊ 5468
ĠVa 26615
æİĴåĪĹ 108467
ateurs 35206
ĠWCHAR 73264
Ġwisdom 23389
à¸ĩ 30434
ì¢ĥ 149102
ĠOt 30576
ĠìĿ¼ë³¸ 136293
.Part 52250
Performed 14855
×Ľ×ĳ 125743
æ²Ł 102019
ì»¹ 146951
ëĳ¡ 145030
Ġunless 7241
ĠìŀĲê¸° 131823
combe 91057
_lc 93057
infeld 98836
igmatic 98730
_CHUNK 70508
ç´«èī² 111413
ï¤Ń 151119
Permission 14966
ensively 26916
Ġneh 68453
GetProcAddress 97558
ĠĠĠĠĉĉĉĉĉ 79039
SelfPermission 77855
jen 23166
ĠIl 7543
ï±ĭ 151213
zenie 38418
Ġhefty 64142
æķ£æĸĩ 110401
Ġexcit 24431
ĠOpr 77518
Ġjoe 93341
çī¹ 65278
_LENGTH 15023
è¯Ī 101564
_start 4906
_BOUND 73644
Ã³a 58875
Ġmatcher 36052
ç¿± 121792
æ¶ĺ 122707
Par 4272
(header 25534
omers 68538
ìĥľ 148078
@Xml 59088
ĠLooks 41806
Ġinp 32344
Äĺ 134333
åŃŁ 104600
Ġscissors 71624
ï¦ĸ 151136
opaque 95480
_ANS 67752
ð«Ľ 123064
ÙħØ¨Ø§Ø¯Ø¦ 143637
Ġhp 20630
-Pacific 63876
ĠPercent 55348
Ġclassified 21091
Ġ×Ĺ×ķ×ĳ 135742
ï¬Ħ 148671
ĠConnect 13015
HeadersHeightSizeMode 46119
æ¹ĺè¥¿ 114595
oo 2624
reply 21034
ĠÐ»ÑİÐ±Ð¸Ð¼ 138158
-library 52421
Ġrespons 4200
ĠPEN 80670
Ġmissile 25224
ĠTactical 70558
acman 94114
PDF 23424
itized 83443
ÐµÑĤ 8178
æĶ¯çº¿ 109419
Ġown 1828
ĉmanager 92272
ĠpossibilitÃ© 137759
éĤ£æł·çļĦ 109496
Ġbedding 60153
[dir 93479
ĠIncrease 39633
Ġclf 46079
æ¼Ĥäº® 101518
çŁ¥åĲįçļĦ 111398
ĉasync 52384
Ġduk 87477
Ø§Ø¯ÙĬØ© 133642
.constraint 29114
íļ 124297
(Print 93349
ĠMachinery 44106
Ġmistake 16523
.ctx 30608
ðĿļĽ 147914
Ġprank 75273
ĠgridSize 97511
èį· 100905
×¦×ª 126946
åĸĪ 120916
ĠØ¹ÙĦÙħ 130226
Ġì´Ī 83315
æ¸ħæ´ģ 102353
Ġsexism 67995
Ġ×¢×ķ×ĳ×¨ 136554
*self 46567
å¥½å¥½ 102231
ĠCertain 34111
Ġceilings 55714
Ġsubdiv 66509
Preparing 97191
Ġpau 83195
ĉtxt 68272
ĠHat 21341
×¤×¡×ĺ 142314
ĠFileOutputStream 42656
(sk 68907
Ġescalate 88590
']],Ċ 52664
Ġ&, 51953
Ġstops 17933
åħ»æĪĲ 107428
ê²łìĬµëĭĪëĭ¤ 127463
.instances 81272
CreateInfo 61101
Ġguards 26178
Ø® 35244
Ġrepublic 34444
(infile 71113
ĠMX 27585
Ġmoss 77243
.shapes 98981
entence 18380
åģĩè®¾ 108140
ĠtÆ°á»Ŀng 137173
ë³´ëĭ¤ 129885
æ¸ł 101146
act 531
ĠÅĤadn 143482
ĠNOTE 16743
_random 22644
iter 2015
ĠÐºÐ¾Ð¶ 139044
à¸£à¹īà¸²à¸Ļ 125597
Ġdiesen 50435
/full 62975
Ġdevez 85940
ĠcompareTo 79298
éĿĻéĿĻåľ° 115845
ÙħØ¤ØªÙħØ± 135406
ĠFollowing 22713
ĠValidates 97843
Ġbones 24854
Ġcannabinoids 92886
ĠIDS 39197
Ġfj 75371
ĠAudience 64900
åįĸåĩº 109430
ĠJSON 4718
_but 86874
amanho 46305
Ġanswering 35764
("." 73133
idental 61623
Ġgentlemen 57809
_mk 64861
Ġcartel 79640
onenumber 73266
ĠRepair 27167
Ġpf 27418
/gcc 89848
âĺĵ 146356
canonical 77942
Ġthrowing 21244
Ġnavigating 59399
å°±å¥½åĥı 113351
ĠÐºÐ°Ð·Ð¸Ð½Ð¾ 131047
å°¿ 102395
Ġmá»¥n 136351
ĠÐ¼ÐµÑĤ 127765
.Build 25212
Ġden 3371
áħŃ 150475
anzi 71818
Ġexcavation 96439
ĠWalker 22278
ĠAraÅŁtÄ±rma 142965
ðĿĲĻ 149868
ç¼ĺ 100236
ĉplay 88967
ĠÑĢÐµÑģÑĤ 142710
äº§ä¸ļ 99404
ĠHawaii 27521
Ġhomosexuals 96123
_bbox 59390
åŁ·è¡Į 113505
Ġblinded 89116
_master 24582
ïŃŃ 146316
MULT 67495
Ġdefence 22835
Ġfragmented 86095
Ġbrought 7117
checks 49383
_Equals 86567
.createdAt 65621
ĠKodi 81312
yla 60722
íĻ± 148532
á»· 127316
Ġcarcin 51688
ICENSE 6640
_members 30397
-forward 44804
æľįåĬ¡äºİ 112281
Consult 59755
ĠÙħØ¯ÙĬØ± 132889
åĪ« 62922
ĠDram 79110
éĺŁéķ¿ 106123
ĠObjectMapper 54350
xBD 81803
.ToolStripItem 45615
erville 50772
Ø§Ø¯Ø§Øª 132070
Forgot 70372
è¢ĭ 100509
<! 13543
ĉgrid 49018
Ġsurrounding 14590
Ġready 5527
ØŃØ¯ 124062
Ġcarrying 15331
èĲ½åĲİ 105983
Ġblown 35474
æįŁåĿı 107209
Ġqueries 19556
Ġlegion 94168
Ġcoarse 49247
_cred 73475
âĭ® 146452
ë¾Ķ 150968
Ġmidnight 32333
latent 50023
çĨ¬å¤ľ 113414
Lik 71997
ott 1716
ĠÃ¶zellikle 132139
stdint 31435
=? 19884
ÑĤÐµÐ»ÑĮÐ½ÑĭÐµ 136566
ĠÐ²Ð°Ð¼ 129379
à¹Ħà¸£ 124520
ĠÑģÐ°Ð¼ÑĭÐ¹ 139524
.flow 34071
ä¸Ńå°ı 100573
Ġride 11877
Successful 36374
LI 18537
esses 64870
physics 66765
Ġtweaked 88460
ĠbÃ¡nh 132710
.vel 55710
Ġogs 43734
çĶ·çĶŁ 105571
èŀ½ 121930
ä¸Ģä¸ªäºº 101977
åı¥ 99700
ë§« 150933
Ġrobbed 62254
nim 56751
Ø¹Ø© 124511
ĠHunter 23133
ĠRegistration 24516
IRROR 87517
å·§åĲĪ 116910
Ġcalculate 11047
essed 21712
eder 7294
unts 36940
ĠAutomobile 85141
arlo 60928
ĠÙĪÙİ 129095
Ġpositioning 38725
ĠtextStyle 73096
.h 860
çģ«çĤ¬ 116097
Ġ×Ķ×¤×¨ 129161
(frame 15046
ereco 33994
ĠÐ±Ð¸Ð· 132198
Ġview 1651
-shot 63530
Ġcherry 40880
rium 40452
áŀģ 147805
×Ĳ×ķ×ĺ×ķ×ĳ 139487
ĠAuckland 53246
ä¸¤ 77540
ĠMadrid 24081
è¿ĽæĿ¥ 105132
âĩ¾ 146731
Ġacoustic 44066
ðŁĶ¢ 151405
ĠÐ¨ 128936
éĿ´ 112466
ìĹĥ 151000
Ð°ÑĢÐ°Ð¼ 57710
Ġtá»Ľi 128447
ĠvidÃ© 39638
>> 2452
,< 69321
ï¬Ģ 145730
å²ģæĹ¶ 112436
ĠKat 17363
Ġsynagogue 94865
Ġ{ 314
>();ĊĊ 10448
ĠTá»ķ 126778
æĳħ 121107
ĠÐºÐ°Ð¿Ð¸ÑĤÐ°Ð» 141160
ĠMd 53110
.Enter 52267
ĠÙĪØ§ÙĦØ£ 129271
Ġlys 83395
åĨ·éĿĻ 108056
ĠÙĬÙĥÙĪÙĨ 128731
åĬłå¯Ĩ 113456
ĠScho 56184
", 497
ĠInstructor 62362
.fileName 56225
åıįå¯¹ 105018
ĠSeason 14263
Ġengineer 23576
<lemma 23543
éĿ¢è¯ķ 104755
å·ĩ 123742
.READ 60438
Ġqui 7774
.skill 64134
_buf 10363
á»Ħ 144221
ãģĬãĤĬãģ¾ãģĻ 126085
=utf 22264
ĠCONTRACT 17126
fcc 72975
ØªÙħØ«ÙĦ 136334
ðŁĵª 151398
ãİķ 150783
Ġassess 8552
Ġoriginal 4024
Ġruled 21286
ĠpoczÄħtku 135409
ĠScholars 98294
ÙĤØ±Ø¨ 131378
ĠMATERIAL 75123
Ġrecipe 11116
Ø¬Ø§Ø¨ 131732
æ¸¸çİ© 109280
à¸«à¸¢à¸¸à¸Ķ 133233
.OP 81563
ĠMETA 79341
ltre 78758
>Returns 80104
×ķ×ľ×Ķ 124924
å²Į 119608
ation 367
Ye 86475
à¸£à¸ĸ 125051
oundingBox 57504
Ġ"",Ċ 8324
Ġmanh 139272
secret 20474
]+\ 66327
(QString 20749
ĠÐ¼Ð¸Ð»Ð»Ð¸Ð¾Ð½ 139642
ÃŃst 34309
ĠRating 19216
Ð¿ÑĢÐ¾Ð¸Ð·Ð²Ð¾Ð´ 129647
ĠAltern 19489
à¸Ĥà¹Īà¸²à¸§à¸ªà¸²à¸£ 141887
Inputs 31946
Ġnewsletters 34388
Ġfacto 60496
Ġ×¨×ķ×¦×Ļ×Ŀ 131812
×Ļ×¨×Ļ×Ŀ 126612
æĸ°éĹ»ä¸Ńå¿ĥ 111432
éĥ½æĺ¯éĿŀå¸¸ 113480
Ġsku 52322
_Camera 89076
Ġmocks 68909
×Ļ×ŀ×Ļ×Ŀ 126393
abbage 56489
ĠRowe 94840
Ġgunfire 76795
Ctl 94252
ocio 46410
æŃ£åĢ¼ 113859
Ġsift 80744
å°ĨæĿ¥ 105314
èµ·èįī 114452
Ġonto 8630
Aut 19602
Off 4596
ãģĬé¡ĺ 132001
ĠPeak 43162
æħ¢ 99843
è¡£çī© 111703
'elle 79620
ĠSudan 42454
numero 32615
vi 9971
áµĪ 147364
ĠkÃ½ 129212
Ġbreasts 36349
ã¿ 122843
proper 80668
Ġmob 12595
('[ 20582
.TEXT 41672
Ð°ÑģÑģÐ¸Ð² 46660
åħ³æĢĢ 107045
ðŁĴ¡ 145289
Ġ(){Ċ 40653
Ġretries 60601
Ġguidance 18821
Ġdeeper 19117
Den 23619
è¿ĲåĬ¿ 113800
Ġoutfit 27303
Ġcdr 88304
äºĨåĩł 107186
ĠÐµÐ²ÑĢÐ¾Ð¿ÐµÐ¹ 143946
Å¥ 74801
ä¹°è½¦ 113930
ĠØªÙĦÙĥ 129341
ptide 46209
çļĦç¬ĳå®¹ 110247
âĵ 123875
ĠÐĿÐ° 128313
mÃ³ 137905
.setItems 98132
Ġsw 2021
ä¹ıåĬĽ 113631
åİĤå®¶ 102333
ounced 19453
Ġflu 19660
<& 52244
Æļ 150324
scriptions 29966
tick 34155
Deployment 75286
tz 37592
ðĿĳĴ 145212
reports 36906
ĠPrescott 90779
Ġskip 10706
è§£æŀĲ 106637
ĠGUID 30221
è·Łä»ĸ 107794
ĉSerial 93658
ĠoluÅŁan 139527
Ġpredis 79532
ãįĳ 148184
ĠÐºÑĢÐµÐ´Ð¸ÑĤ 130927
clarations 49121
ðŁİ¨ 146818
umber 890
åĬĽåŃ¦ 114797
åĤ¨åŃĺ 108695
-suite 91574
actical 36019
.strictEqual 44201
ªĮ 36677
è½ª 122212
.withOpacity 96098
_w 1670
aut 2717
ÙĨÙĤÙĦ 129066
ĠOP 13134
_refptr 97643
SENT 30658
ĠcÃ¹ng 128340
Ġperiodic 38345
erd 14348
èĤ¡ç¥¨ 104023
ĠdifÃŃcil 85480
åį°å°¼ 111348
åĲ¯çĶ¨ 111456
ĠUserName 47398
íĵĮ 146744
Ġpropia 97329
Ġ×Ķ×Ĳ×ŀ×Ļ×ª×Ļ 142599
ĠÐ²Ð¾Ð·Ð´ÐµÐ¹ÑģÑĤÐ²Ð¸ 140737
áķķ 149574
ĠLGBTQ 49942
ãĥ¡ãĥªãĥĥãĥĪ 133930
.aw 5939
(sync 97233
ç³į 121670
Ø§Ø±Ø§Øª 124669
æ²Ļ 99617
FXML 28148
ĠCompanion 68975
aptic 52174
_CC 31331
Ġyielding 77404
lease 1623
Ġnajb 143244
-hand 24413
_MESSAGE 14641
_percent 29883
_series 35015
ĠUk 59313
ç¹ģ 100112
ĠDeluxe 52961
ĠØ§ÙĦÙħØ´Ø±ÙĪØ¹ 134790
Bean 10437
×©×Ļ×¤×ķ×¨ 139360
ĠthÃŃ 135863
(width 16425
.getActive 83735
Ġthigh 38671
.Result 18456
äĦ 149392
×¨×¦×ķ×Ł 136086
çıĸ 122567
classmethod 26755
ĠPost 3877
Ġcapita 52055
LIB 23838
ĠcombineReducers 57943
Ġ\Ċ 3044
UniformLocation 51704
ÑĦÐ¸Ðº 141544
(inp 59603
à¸¨à¸²à¸¥ 133991
Ġidols 89761
-chain 65186
Ġsemantic 41733
ä¼ļè§īå¾Ĺ 111096
æ¥Ļ 123162
=[" 27965
Cette 86178
é³ı 121995
Z 57
Ġdigit 15723
ðŁ¥ľ 148470
apiro 69479
ĠHandling 55713
Ġpomys 135669
Compet 75039
Ġtempted 53880
Ġcontemplating 78242
Ġegal 76171
çŁĽ 102229
ç¯¼ 121905
')." 91514
Ġludicrous 89171
ĠPolymer 96670
ĠRim 51379
Ġcg 35740
ĠExperiment 46793
.review 69128
Ġvin 23902
Canceled 63263
Ġë§Įëĵ¤ 127579
ðŁ¤¯ 146912
Ġcoating 40294
.bridge 82607
icity 61691
ĠAvg 62080
çī¹åĪ¥ 107822
Ġheroine 80087
å³Ľ 122473
çŁŃæĿ¿ 107943
)čĊčĊčĊ 33916
Purple 74513
.rpc 55177
isclosed 73690
åĲĮä¼´ 112097
.swap 54537
DEFINE 35872
Ġeffortlessly 68604
Ġ×ĳ×ľ×Ļ 129563
âµ£ 147012
Ġbreakpoints 91530
Moved 53232
Ġà¸Īà¸¶à¸ĩ 130301
Ġunpopular 65758
áº¿p 124778
Engineering 86000
ä¸ºèĩªå·± 107138
Ġ×¢×¡×§×Ļ 137910
%;čĊ 72086
ĠÐ½Ð°ÑĪÐ¸Ñħ 139290
åĵ® 103668
Animate 82225
Ġsupermarkets 76499
Êİ 147128
åĽĶ 122121
ï¼Ĳ 26022
Ġë© 48108
(library 93299
-dashboard 49136
Ġaval 40535
è¶Ĭå¤ļ 108123
Ġdealings 65929
quet 23300
(begin 49071
åıĳçİ°èĩªå·± 110268
à¸Ļà¸±à¸ģà¹Ģà¸£à¸µà¸¢à¸Ļ 135751
×ª×§×ķ×ķ×Ķ 140740
ĠCÃ²n 135466
ĠØ§ÙĦØ¬Ùĩ 142980
çĭĥ 122237
Ġago 4134
'all 64848
æĬĹåĩ» 103775
ĠoutputFile 62843
ðŁļª 147774
åĺ´éĩĮ 109105
Ġsearched 26502
ĠCertification 50210
Ġache 77731
éŃī 121793
åī¥ç¦» 118266
Ġfreed 27534
PLEMENT 38315
Ġfountain 56613
ĠEither 20988
Putin 67686
Ġ×§×¦×ª 130667
ÙĤØ·Ø¹ 130389
Ġaqui 43576
Ġsextreffen 96835
[ID 88377
ç¾İèģĶ 109260
åĽ½åľŁèµĦæºĲ 115101
.writeFile 70007
éĿŀå¸¸å¤ļ 113370
ĠAynÄ± 139673
ĉputs 43027
åºĶæĶ¶ 117465
.filters 41707
StartDate 44530
iek 35007
.Getter 64668
Dependencies 48303
è®³ 117533
ĠkullanÄ±l 130002
PERATURE 87513
ĉcard 80084
_disk 41687
ok 562
ĠMars 21048
(inplace 82206
ĠPhilippe 66854
Ġknob 58572
Ġreturned 5927
IA 5863
Ġxml 8396
ĠÐ½ÐµÑģÐºÐ¾Ð»ÑĮ 141497
('/ 3396
')));ĊĊ 93045
());čĊčĊ 28958
oreferrer 57940
Öī 150381
æĻºèĥ½æīĭæľº 109293
è©¹ 103139
Cnt 33747
ĠÐºÑĢÐ°Ñģ 127736
Ġcris 58953
Óħ 150370
Ġex 505
åĨľåľº 108447
Ġconvinc 35861
Ġ'// 59660
ĠIstanbul 53368
_UINT 27241
ä»Ģä¹Īäºĭ 110400
ĠEventType 63128
ç§ĳåŃ¸ 113301
Taylor 67136
_vote 54360
_lane 60302
ĠGTA 58745
Ġtiáº¿ 128606
Entr 52048
ĠArm 12990
Ġsuperclass 77614
ç»ĻäºĪäºĨ 113720
æ¸©åº¦ 104273
ĠPublished 29014
ĠEthics 49181
ë´£ 146761
ĠLÃª 131699
Ġformed 14122
upid 15884
_MAT 71917
_structure 38283
Ġ($( 39137
Ġdelayed 22706
Ġjewelry 30717
%%%%%%%%%%%%%%%%%%%%%%%%%%%%%%%%%%%%%%%%%%%%%%%%%%%%%%%%%%%%%%%% 79518
æĮģæľīäºº 116663
Zh 83678
ãģ¨æĢĿãģĨ 126508
æľīæķĪæĢ§ 114522
è¯´æľį 110611
ether 2723
ĠBaker 28392
co 1015
çĻ¾è´§ 107774
ArgumentNullException 63661
è¯Ĺäºº 106926
Ġfred 97126
jected 28303
ç¬ĳ 48738
Ġhypert 47755
Of 2124
×¢×¨×Ļ×Ľ 133101
Ø£ÙĨØ¸ÙħØ© 141041
Ġsignaling 41980
ĠÐ´Ð²Ð¸Ð³Ð°ÑĤ 141745
Moon 76019
çºªå§Ķä¹¦è®° 116081
Ø¹ÙĨØ§ 143629
egra 87575
Ġchauff 73717
.documentElement 43540
gram 1520
ĠACS 78084
ãģĤãģ£ãģŁ 130409
æĭľçĻ» 108832
èµĴ 123027
_Bl 56947
ĠEnough 61592
ĠWolff 95145
éĴĵé±¼ 110465
ilda 55161
Ġdeclar 9445
Ġrivalry 59922
GREEN 55954
áĽı 148807
íĦ´ 94152
æļ® 109803
Existing 53067
ĠHealthy 43354
å¬· 121951
ĠÐ»Ð¸ÑĤ 140564
Ġrage 32949
Ġ----------Ċ 30323
æĤī 100282
Ġexpect 1720
Ġexceed 12488
ĠCO 7284
Ġexce 90284
apas 88027
relative 20432
Ġjej 62964
animations 52927
ĠÑģÐ°Ð¼ÑĭÐ¼ 138766
.setCode 86161
Ġobr 38194
å®Įæ¯ķ 106865
Ø¨Ø±ÙħØ¬ 142838
åįĹçĵľ 115865
Ġsurvey 10572
SCALL 73026
.abort 84012
Arch 18727
ria 4204
ãĢĻ 146990
å¤©åĽ½ 115962
ĠBuen 53841
,on 96225
Ġpendant 41744
.isConnected 76542
memberOf 68981
ĠMEN 67928
general 24595
Century 63873
_Off 94377
ĠIf 1416
Ġnpc 36383
å¤§åĬĽæİ¨è¿Ľ 112021
Ð¾Ð± 13764
ĠteÅŁekkÃ¼r 133940
(counter 41320
.SEVER 29540
Ġabuse 11480
ĠØ§ÙĦÙĤØ¶ 142887
UNDER 81391
Ġske 15722
indic 85084
Ġimproper 39986
xd 9703
tog 67173
_the 16068
é¦ĸä½į 109465
Ġhrs 40040
ç½Ĳ 105240
æ»¡æĦıåº¦ 109759
ĠÑĢÐ°Ð´ 134296
(ChatColor 90241
umbledore 75318
umeric 12572
ĠFrid 63004
Ġagricultural 28049
(WebDriver 95288
ĠdisplayName 34770
è¿Ļè®© 110600
EXAMPLE 95875
DIC 93161
Ġsaber 41004
P 47
å¼Ģç«¯ 108917
Ġintest 38308
ĠCheap 35934
angles 17248
åĳ¨ 40542
(){čĊčĊ 81254
ĠLane 26018
.AL 41063
mainwindow 41580
Ġenzym 30911
Ġà¸Ńà¸¢à¹Īà¸²à¸ĩà¹Ħà¸£ 142061
Ġ(** 76496
()))ĊĊ 49962
éĺħ 99915
ĠRESPONS 88979
eland 18123
egg 28368
ĠIntelligent 77088
ĠcomeÃ§a 136997
Ġindex 1922
osemite 83013
ĠPanda 72410
Ġcornerstone 81475
ĠÐºÐ¾ 87415
ĠDuel 57194
ĠÑĦÐ¸ÑĢÐ¼ 138635
Ð·Ð²ÑĥÑĩ 142071
ĉĠĠ 8689
.IContainer 30140
Ġespecialmente 94002
_rem 19194
yg 48765
ĠBibli 61826
ĠLSD 71070
ĠHats 90215
ĠMail 14874
ãģ¯ãģªãģĦ 131335
×ķ×¤×Ļ×¢ 131497
è¡¨è¾¾ 102124
è¯Ħå§Ķ 111693
Ġdamning 95303
Ġglove 55420
ĠTrainer 46055
Ġxrange 33073
aisal 91020
cams 74250
Ġmuff 54304
.Configure 78281
ĠClaus 67019
=-=-=-=-=-=-=-=- 95523
Ġdocumented 26372
Ġinjecting 87285
ç¿¾ 123720
é«ĺç§ĳæĬĢ 106807
Ð°Ð½Ð´ 75459
Ġmarginalized 75720
.has 6858
Ġmeet 3367
å¸ĥæľĹ 116459
Ġ×Ķ×ĵ 126484
Ġ×ĵ×ķ×¨×© 143079
ä¸ĩå¹³æĸ¹ç±³ 105605
è½¬åŁºåĽł 116468
Ġmulheres 57666
èĿ° 121612
vara 95950
Ġconte 59616
_fl 5081
çŃ¾çº¦ä»ªå¼ı 112772
êªĢ 149725
Ġjoueur 75949
Ġvet 23313
ĠÑģÐ»ÑĥÑĩÐ°Ð¹ 140664
ë¥¼ 18411
')-> 4919
.Device 43995
_var 4612
å´ĸ 103224
ç¥¨æį® 110228
Ġbergen 77325
å¿ 25145
ì¨© 148655
ĉsw 77295
×ķ×ĳ×© 138859
ĠAttribute 16752
Ġce 3761
åĪĽéĢłäºĨ 106947
å°Ħåĩ» 111724
_Obj 70672
ĠIdaho 39587
æĴŃç§į 114101
Ġnominee 28211
kÃ¼r 127356
Ġbattle 8049
ðŁı 123813
Ġ//( 67022
"label 92667
æķ¬ 100098
NST 50479
ĠKop 58009
ãİĦ 150782
Ġdefinitive 44713
_PED 81630
>}' 54722
_peak 66709
íķł 47836
Ġuneven 60337
ê¦Ĺ 149330
ë²Īíĺ¸ 72048
ĠFinish 35533
_bulk 71392
_cluster 28441
ĠmÃ´i 129991
Ġ×ľ×©×ľ×Ŀ 139777
linha 66820
×ł×Ł 129365
Ġyeast 40480
Ġimpro 3657
(""" 49245
PPP 97252
./ 1725
_problem 60139
anchise 65690
Ġarrests 37711
Ġfanc 80597
Ġvowels 78456
Ø®Ùħ 133781
æĻºéĢł 116739
Ġrecovery 13351
Ġtyr 41949
wit 88519
×§×ķ 126226
à¸Ħà¸£à¸¶à¹Īà¸ĩ 138739
Dic 44545
Ġ$" 23440
ĠBolivia 76610
ĠØ§ÙĦÙħØ§ÙĦÙĬØ© 132071
Ø¬Ø± 124328
Ġtags 9492
æĬ¿ 119812
åĸľæ¬¢ 99729
ĠAI 15235
ĠAdding 30370
Ġotherwise 5937
-May 61986
=res 78370
alf 3104
_front 22926
Ġ"""čĊ 25468
AssignableFrom 65685
æį®æĬ¥éģĵ 117524
è»į 105343
éĻĦ 100093
éłĨ 109243
ĠinitialState 29427
ĠAdvance 46296
ĠCorrections 90472
åįģåĽĽ 100977
ðĿĴ¹ 147660
Ġwow 35665
å¦ģ 119649
Ġemergency 12851
om 316
âīħ 147887
ĠTee 66999
exclusive 89122
olog 1609
ĠFoot 15455
ä¿¡æģ¯åĮĸ 104512
Ġaccrued 98116
åıĳè¨Ģ 102588
ĠAviation 48947
ĠCathy 81348
è®ºè¯ģ 109752
();ĊĊĊ 17745
×Ĵ×Ļ×© 126828
kÃ¶p 137316
ĠpensÃ© 140016
derive 27098
å·²ç»ıæĪĲä¸º 105940
Ġalbums 27685
Ġfrog 59881
Ġmooie 75653
Ġtele 7963
nett 82724
èµī 120634
[t 14193
ç¦º 120106
letters 21053
Ġinvit 82067
ä°Ģ 149717
æľĥåĵ¡ 100860
ç°ĥ 123631
entin 43409
_qty 34858
ĠBindingFlags 58678
ãĤ¨ãĥįãĥ« 140474
ĠLafayette 77181
Ġillnesses 48809
ĠÐºÐ¾ÑĤÐ¾ÑĢÑĭÑħ 130455
Ġexperienced 10321
FirstOrDefault 26841
åįĵ 101440
Mutation 53998
æĹĸ 121489
æł¼æŀĹ 113244
åĮĸèĤ¥ 112646
è¢¯ 122720
URY 75629
Ġone 825
Ġairflow 73020
à¹Ģà¸ĺà¸Ń 129229
æĪĲåĬŁçİĩ 113923
ä¹°çļĦ 108850
parts 18252
Ø¨Ø¯Ø£ 129614
Ġrecib 45269
Ġ/>ĊĊ 18544
attern 3227
Ġasset 9329
Ġspecify 13837
PressEvent 81853
Ġahora 46317
Ġinteres 49416
idge 6478
oji 26902
ĠIndonesian 58829
ïºĸ 145148
ĠReliable 91563
ä¸ĢéĹª 117958
undreds 45713
,z 22669
ault 945
ĠElementRef 57690
Ġdispatcher 38799
Èĵ 150046
ilst 19282
Ġkun 23330
Ġtailored 40791
flow 4965
.floor 12889
ĠSuzuki 55746
ĠÙĦÙĨØ§ 133289
ï¤Į 148668
ëĤĢ 144468
ĠLions 32765
Ġturret 64386
...] 61399
_algo 76993
Ġdiscord 31041
Ġdropped 12226
`.` 28905
åĻ¼ 121770
ĠNel 88361
Ġalles 35951
Ã©tais 142994
Ġsnapchat 98050
Ġunfortunately 25822
ĠproductName 65587
æĭ¬ 100139
XX 6148
'),Ċ 3299
åĲµ 101666
ematic 12240
ĠAutomated 94723
Ġ×Ľ×ª 125659
ĠSun 8059
à¹ĥà¸Ħà¸£ 128881
áĽļ 148169
mix 35071
ìĪį 144574
SCR 37309
ĠMassage 26385
_href 62988
,", 57955
æĭ¯ 103367
Ġdesn 65280
Ġ×ľ×¤×Ĺ×ķ×ª 134112
ĠproductService 98995
ç¥ı 122540
ç¬Ľ 110427
_refs 60638
.aspect 65979
Ġruining 91171
æĪĳè¦ģ 104515
èĸ® 121723
ĠRegiment 72686
áº¡n 49886
ĠØ£Ø«ÙĨØ§Ø¡ 134017
æºģ 123087
_${ 40855
Ġminimal 17377
_SIG 55687
=""Ċ 33418
×ŀ×©×ľ×ķ×Ĺ 141983
(run 38772
/int 31114
ching 26977
sum 1242
markdown 60073
åĵįåºĶ 102808
ĠRosenstein 90018
Ġcheerful 70314
Ġcoin 16254
Ġvertical 12140
ìŀĪëĬĶ 135889
Ð¿Ð¾Ð»Ð½ÐµÐ½ 133922
ÙħØ¹Ø¯ 138569
/manual 73095
ĠDD 30904
ĠRising 48887
ĠSkill 27482
_REPO 82479
inals 23695
Ġ//// 30799
ĠunitOfWork 84053
.rollback 58011
(vm 31723
áĲĥ 148049
ĠGuardian 24454
å®¢æ°Ķ 112221
å¹» 100320
ĠMathematical 91002
yn 1872
Networking 78007
ĠARTICLE 91915
istribution 13107
âķŃ 146274
friendly 81530
Ġwords 4244
ĠMart 8127
Ġtwelve 29235
ĠCOMPANY 65448
halten 35505
è¿Ľé£Ł 115737
è¦ģèĢĥèĻĳ 114632
ê±°ë¦¬ 138724
ë³ 27999
Ġ-------- 56136
Ġspur 59031
Military 85326
robot 18247
ÙĪÙĦ 72804
Ġinstinct 30555
ĠìľĦì¹ĺ 98987
.Ok 54282
_FONT 39532
åľ¨ç¶² 111089
ĠMov 53285
Ġ_______, 56537
èģĶéĤ¦ 108058
Ġdisappear 31053
Dod 90463
Ġscreened 57577
.ObjectMeta 80222
.abspath 35552
getResult 56656
ĠAdopt 85280
-not 29169
.Strings 89154
EFAULT 83715
ewan 52298
ĠMacros 98447
ĠEpoch 87379
rece 53387
AMB 69200
Ġkann 15719
Russia 44506
ĉcopy 49124
cal 5416
Ġparenting 47958
ÛĴ 145146
çĶŁéķ¿ 104569
ĠChristina 59671
noÅĽÄĩ 71619
ĠPoverty 69174
Ð¸Ð½Ð´Ð¸Ð²Ð¸Ð´ÑĥÐ°Ð»ÑĮÐ½ 138153
Ġthreats 17736
Ġautres 45006
_IO 19790
Ġdevise 52065
Ġfibonacci 75698
Ġwashed 37493
ĠìķĦëŀĺ 136646
ĠheightFor 68349
ĠDemocrats 12363
×§×ķ×ľ 126533
skirts 66975
_kategori 81270
cient 12295
×¡×ĳ×¨ 136437
åĳ¼åĶ¤ 116551
ëı¤ 146788
ã« 122802
Ġfarther 42626
âļĹ 151478
Ġhoáº¡ch 130361
elage 80792
sms 41392
ĠIDF 71555
ĠtoplantÄ± 135369
ÐĦ 145060
ĉz 20832
ĠgetItem 26978
Ġunwanted 34921
Ġwording 60227
ĠÑĢÐ°Ð·Ð²Ð¸ÑĤÐ¸Ñı 133079
åı¥åŃĲ 109949
Foreground 25982
ĠØ§ÙĦÙģØ±ÙĬÙĤ 133531
Ø´ÙĬØ® 138478
ĠcurrentTime 39199
ĠCROSS 97773
é«ĭ 122030
èĪ´ 120737
_flg 86258
Ġmoderators 82747
zial 59380
Ġfucking 17224
Ġofferings 32835
(input 5384
'options 89522
unless 38770
Ġtrope 84148
building 23296
æľºåĪ¶ 100674
ĠgÃ¶r 57704
Ġnewest 23601
ĠØ±Ø¯ 130852
ç¨¿ä»¶ 108474
áºį 150603
åº¶ 116785
Ġambition 44615
à¸ļà¸±à¸Ļà¹Ģà¸Ĺà¸´à¸ĩ 141394
åģķ 120726
ĠcÄĥ 39257
wstring 43890
TextNode 46231
Ġprodu 2497
Ü¢ 146361
çļĦçĪ¶äº² 109506
èłķ 119526
Ġerreur 90920
åħ¶å®ŀ 101045
*** 12210
Ġenvironment 4573
ĠÑĦÐ°Ð¹Ð» 46318
ĠÑģÑĤÐ°Ð½ 128130
Ġraison 72073
×ł×ª×Ļ 127104
ÙģØ¦ 141919
Ð¾Ð±Ð¾ÑĢÐ¾ÑĤ 139243
Ġbuff 11522
ĠOc 82452
æ©¡ 103218
.Update 16689
æĹ¥ãĢħ 137777
ĠQuáº£n 140428
ĠKensington 95733
ðŁĽ¤ 149944
Ð¸ÑĢÐ¾Ð²ÐºÐ¸ 140852
gsub 94548
olve 3948
è°ĥæŁ¥æĺ¾ç¤º 118570
éĺ²ç©º 115387
ĉĉĉĠĠĠĠĠĠĠĠĠĠĠ 52078
à¸¢à¸´à¸Ļà¸Ķà¸µ 138294
æ³· 119948
æŃ© 143852
ê¸Īìľµ 138870
ĠTitanic 88762
Ġfront 4065
Ġinjector 62643
figures 98027
amm 8666
Ã©st 86092
ì¯ķ 151042
è±ª 99958
åªĽ 109970
å¯¹éĿ¢ 106593
($('< 96366
obook 73328
Ġnim 45692
áķ· 151639
ç¬« 122652
orning 79575
ðĿĳĽ 145519
ðŁĴĶ 145679
.columns 21153
Ġn 308
ĠMerchant 55399
-word 37328
cuda 33926
Ġë³Ģ 46319
ĠSwimming 74700
å¥³æĸ¹ 116089
relationship 36095
ðŁĳº 148006
Ġ"--- 75894
(del 55927
CLK 26019
ĠSU 15490
å¹´èµ· 109184
Here 8420
_DEV 26419
Ġidx 7187
istributions 17994
ping 9989
problems 95340
.getCount 52914
è¡Ĺå¤´ 108094
Ġpledges 78018
ð«° 122375
Informe 88891
(($ 33077
éĵ¬ 119244
ĠBearings 64316
Ñĺ 144254
ä¸įåħĭ 115580
ãģ«è¡Įãģı 133971
åĪĨéħį 104675
ĠBlueprintReadOnly 93125
,LOCATION 87897
æľ¸ 122153
ĠEncore 99078
ĠGOP 18106
ĠìĦ¤ëªħ 133828
ĠWindow 13642
å¿ĺäºĨ 106996
ARGS 47483
Ġsteep 31266
èİ·è¯Ħ 118922
Ġxs 11943
_idxs 68646
TabIndex 98609
Ø¥Ø¨Ø± 138730
ĠAlma 98472
igest 15153
sis 14406
Dry 85215
/Main 65241
Ġplaybook 86053
âĭĺ 149646
Ġnargs 51616
.nav 24189
ãĮ 124248
ragments 41956
.RichTextBox 96474
gravity 70791
Ġteas 29568
à¹Ĥà¸Ł 127989
Ġteenage 33168
èĦ±è´«èĩ´å¯Į 116792
Ġoutros 56873
ĠIndicator 63604
Ġ×Ķ×Ĳ×Ĺ×¨×ķ×ł×ķ×ª 135687
&D 32365
ĠGal 10620
ĠniektÃ³rych 143843
×Ĳ×ª×¨ 125586
à¸Ĥà¸Ńà¸ĩà¸ľà¸¹à¹ī 136579
_MAC 28076
èķŀ 121567
ĠEU 9812
rente 71723
-scale 12934
swana 93710
Ġjente 72404
(os 9638
ĠGef 55857
ĠScrew 72175
-contact 52996
Ġairl 82657
Ġrotor 62025
Ġpic 10319
.âĢ¦ 83241
Ġderen 87862
Michigan 81557
åįĬå²Ľ 109541
enade 86039
Ġlod 35032
ĠÐĴÐ»Ð°Ð´ 136182
ï¼ģâĢĿ 75758
éĿŀå¸¸ 99491
ãģłãģĹ 136424
Ġtreasure 31626
ç¬¬åĽĽå±Ĭ 113447
çŁŃçŁŃ 106793
.return 21458
çīµ 100578
_LIGHT 35614
ĉsearch 45573
clist 84009
ĠDISCLAIMS 83306
ëī¨ 150887
Ġvotes 12684
åıĳåĩº 104351
ĠJesÃºs 142115
Ġtherapy 15069
íĽĶ 145045
unj 68914
Ġtats 140525
æ³µ 102598
nosti 73852
ì«Ĵ 145791
ë¡¼ 151546
èĪł 122337
(city 43502
×Ĳ×ķ×ĺ 128060
Bindings 52843
ä¹ĭä½Ļ 111732
×¤×¡ 124786
orns 43029
Ã¤ 2305
Ġblatantly 97154
å¾®åĪĽ 117652
VERT 20364
ĠVALID 43291
Ġderiving 48089
è¯´çĿĢ 107279
_MAG 55231
×ŀ×ķ×¡ 125300
Ġdiapers 82862
æµ¬ 122698
"People 76682
à¹Ģà¸¥à¸¢à¸Ħà¹Īà¸° 141510
ĉbe 73142
ĠKal 26832
à¸Ļà¸²à¸Ļ 129266
×ĸ×Ľ×ķ 130185
-trans 38060
ĠtÃ¼rl 136166
çĪĨæĸĻ 110125
acios 79845
ĠchÄĥm 131619
Ġmodeling 33479
é²ķ 123370
_disp 50692
×©×Ĺ×§ 141337
JKLMNOP 73127
ãĥ¦ãĥ¼ãĤ 137345
rale 45040
vette 57230
æľīæľŁå¾Ĵ 112050
è®²è¯Ŀ 102631
ĠJas 85116
å¤§åŃ¦çĶŁ 104422
Ġholidays 24421
_FEATURE 30827
Ġname 829
ĠÑĤÐ¸Ð¿ 63833
çļĦæĪĲåĬŁ 107855
Ġaccelerated 48758
MethodName 75648
ĠTelefon 68987
Ġtri 2406
Ġtoll 25851
pcion 16270
Ø 148
Ġ." 41348
ĠElectricity 73356
Tasks 25449
çĤ¹åįĬ 111394
Ġmanagerial 90150
ï¼½ 144083
æĽ´æĺ¯ 103979
Esc 36121
×¡×ķ×ľ 135294
Ġabsorbed 41001
(": 18893
å©§ 118897
drug 72721
åħ¬ç½ĳå®ī 111339
è¿Ļä¸ªåľ°åĽ¾ 106439
ĠChain 28525
íĵ 123968
æ¸¯æ¾³ 103337
ĠPWM 36034
Ġrenovated 56834
(sql 13148
ð¬ĺ 99997
ĠselectedItem 70992
ÙĪÙĬØ© 126395
ĠMutex 66215
StreamWriter 93031
ĠUIG 49058
>{Ċ 41446
Å³ 145051
ç±½ 110170
Ġinheritance 41822
êº½ 145604
çĵĺ 122079
Ġneon 46652
æīĭæľº 58405
gard 53492
(. 14618
ADED 55033
istra 74963
nodes 20008
ĠElevated 96593
Tbl 91325
erde 86805
Ġmore 803
éĹ¨çªĹ 109495
ĠÙħØ³ØªÙĪÙī 132106
Ġproclamation 95430
_IOCTL 67326
ming 5311
/{$ 78658
(_(' 71167
-vers 93936
riminal 57040
åľ¨äºİ 101321
Ġnewcom 48476
-orange 84383
corev 98645
×ĳ×ĺ 125790
*s 33454
pectrum 38706
.ct 49464
Ġgratuite 47309
modo 75943
registro 55346
×Ĳ×ŀ×Ł 135370
ç¼ĸè¾ĳ 57019
èĢĸ 120281
ĠJest 93469
Ġmuddy 79473
Ġmyself 7037
Ġharassed 67510
åĿļæĮģ 100356
ĠĠĠĠĠĠĠĠĠĠĠĠĠĠĊ 26285
']");Ċ 97095
Éĵ 147285
Ġcraftsm 64781
è¿Ļæĺ¯ 100346
é¾Ł 108329
ä¸ľéĥ¨ 106565
Ġflavours 70082
_logo 29962
Ġisolation 30298
ä¸¤æ¬¾ 115367
Ġula 129679
apeake 96556
×ĸ×Ľ×¨ 130983
` 63
ĠMuslims 19503
HD 19147
elines 10999
ĠHer 6252
<form 11608
ãĦŁ 148325
ĠÃĸzellik 136636
Ġhexadecimal 69722
ĠsetLocation 88332
Ġwitnessing 68942
_performance 84833
èĶ» 121376
Ø¨Ùı 137262
Ġ×Ķ×ĺ×Ļ×¤×ķ×ľ 136797
ĠíĻĪíİĺìĿ´ì§Ģ 142787
emic 8111
Rand 56124
.scalablytyped 80900
ĠCath 12234
ðĿķį 151568
Ġcostumes 44088
Ġsubdued 92419
_printf 21823
.area 39491
å°įæĸ¼ 105820
è®¨åİĮ 108749
Ø´Ø¹ÙĪØ± 140505
_ud 71939
Ġì»´ 143520
Ġconfort 65909
èĺĳ 103679
Ġtut 18060
ĠØ§ÙĦØŃÙħÙĦ 137636
è®©æĪĳä»¬ 104233
++;Ċ 3507
ãĤĪãģĨãģª 125057
werk 58864
ONS 29526
ĠØ§ÙĦÙħØŃÙĦÙĬ 141279
stead 42180
frared 81382
ç¶ļãģĳãģ¦ 139785
Ġdifference 6672
è¢Ĥ 120250
Ġanybody 21061
Ġfloating 19057
à¸Ħà¸·à¸Ń 125491
atie 25852
è¡¾ 120447
ĠSentinel 56793
áķ¦ 150540
ĠÑĤÑĢÐµÐ±Ð¾Ð²Ð°Ð½Ð¸Ñı 138412
_thread 10814
æķĪçĽĬ 101365
ĠTimeInterval 98548
Ġscopes 50598
_store 14809
isci 92286
×Ĳ×ł×©×Ļ 132530
Ġgallons 50122
.contentSize 92344
ÙĥØ§Ø± 126900
Ġguitar 16986
TestId 68593
vature 56705
Ġnegot 11642
Ġpouring 50413
ĠØ£ÙĬØ¶ 138194
smtp 39854
å¹³å¸¸ 106533
åħ¬å®īå±Ģ 101637
ĠgehÃ¶ren 142037
.coord 74638
æĹ¶è¡¨ç¤º 112433
Ġrandint 53182
ĠCertified 35442
ERROR 3682
Ã° 67700
ĠsÄĥ 28994
ĠtÃ¢m 128396
ĠCONSTANT 99051
ĠpeÃ§a 137395
ĠSlave 59368
Ġdelimited 85328
ĠNETWORK 57436
×ŀ×Ļ×Ľ×Ķ 135399
å¬ī 119261
åĺ£ 121427
Ġkick 10323
ãģ§ãģĹãģŁãģĮ 133133
æ¼¤ 123396
getParam 44775
ĠschÃ¶ne 91896
Ġcurated 57632
âĢľAs 60453
éĶ¨ 121225
Plain 26982
çīĪæĿĥæīĢæľī 105671
ðŁĴ¯ 145306
ĠRou 28522
Ġsouls 34726
_workspace 75560
)d 65259
Ġembed 11579
Ġpseud 50643
ĠLua 37662
çī¹æ®Ĭ 101167
Ġdiagnostic 15089
Son 45614
angler 65548
boxing 89174
ĠEditorGUI 94408
ĠHOWEVER 29316
ĠIDictionary 59331
Ġboot 10459
ĠOccupational 84155
åĬĽãĤĴ 133986
æ±ŁåįĹ 105811
Ġcry 15729
Ġhookup 61314
Ġsvens 48697
Ġwissen 75130
ĠEst 9403
Ġstrands 68764
charger 41456
tin 55971
strlen 20877
ãĥ§ 77105
ðŁĲĬ 147769
ëµľ 149093
Ġ\< 4444
Ġpertaining 45931
Ġloading 8277
Ġsketch 25529
ampp 45726
ä¸»çº¿ 109106
ðŁĮª 147526
æĽ´ä¸º 104652
ĠBanking 49499
-face 29088
then 3391
èĥĦ 120116
ãģĿãĤĮãģĮ 132146
åħ¬çĽĬæ´»åĬ¨ 116223
reck 24638
DataURL 75262
×ł×Ķ×Ĵ 127338
Ġdict 6451
Ġlá»ĩnh 139081
ĠMiscellaneous 78277
ÑĢÐ°Ð¶Ð° 139445
amins 37825
Turkey 72719
Ð°ÑĢÐ° 133108
Comput 58022
Ġcontrato 81651
à¸£à¸ĸà¸¢à¸Ļà¸ķà¹Į 134048
Ġmaneuvers 95791
ä¾ī 119903
çĹª 119442
ĠÑħÐ°ÑĢÐ°Ðº 127505
ĠÃ©conom 81553
/***/ 21724
_src 16274
Ġrp 33109
ĠÙģÙĤØ¯ 129828
çŁ¥åĲįåº¦ 107610
ĠGestureDetector 63132
ãģĵãģ¨ãģ§ãģĻ 134568
UTES 53785
ĠkhÄĥn 130909
ãģ¦ãĤĤ 125631
.Absolute 38604
voie 87035
çĲĨæĥ³çļĦ 109990
";čĊ 3534
ĠPassing 76292
_auth 14014
STAT 22595
Ġ'..', 88542
ĠBru 18697
.pe 52724
à¸ģà¸¸à¸¥ 136715
.setName 27637
ÑĥÑİ 33048
ë¹ļ 144541
æĹıèĩªæ²»å·ŀ 118115
5 20
coc 77312
hhh 90064
æĿŁç¼ļ 113706
ĠCarmen 69958
ĠHao 93709
Ġelephant 45740
//( 95438
ĠSRC 49510
Ġpostage 77041
å¼Ģåıĳå»ºè®¾ 115954
ìĤĺ 147857
.eulerAngles 80523
nos 36391
é¹ª 121910
Ġbuddy 36672
Ġ--Ċ 39514
icies 44339
Ġworms 61900
ðŁ¥µ 147967
Ġdipl 16918
Bien 81506
vertise 67787
å¼ĢèįĴæĹ¶æľŁ 117288
å¥ĩå¦Ļ 112945
TES 28484
Ġ(*) 44048
Ġdeclining 42748
Profiler 50589
ãĤ¬ 125059
bucket 30410
DES 37987
sey 8506
ĠverÃ¶ffentlicht 141871
íĭ° 131131
Ġcuckold 81252
=[]Ċ 27184
<any 17178
ABS 57479
ufacturer 31545
.Price 49163
useum 11509
ç»įåħ´ 109800
ĠDj 51062
ĠTOK 79501
_ADC 41630
linear 22763
æĥ¯ä¾ĭ 117339
regexp 55796
è°± 101454
)čĊčĊ 7229
ëĲľ 52300
æĥ³åĥı 111176
ðĿĻī 149901
ĠClosing 61113
Meeting 64576
ãģªãģĳãĤĮãģ° 126783
Ġmodifies 82949
Ġsilenced 91681
æ·Ħ 103328
(bool 9764
à¸Ļà¹īà¸³ 125016
äººçĶŁçļĦ 108813
-cultural 93426
ï»¬ 144598
ĠgetId 20452
ĠÐ¿ÑĢÐ¾ 40191
ICT 14805
arser 10425
@[ 40160
Æ°á»£c 57810
Ġwallpapers 81895
ðŁĮĽ 147721
_LOOK 73686
Button 1567
ØªÙĩØ§ 128412
ĠAnc 30277
ĠElephant 78089
Ġlumber 61453
arma 19726
rolled 20947
éĶĪ 102825
.flash 43482
è¯¥å¦Ĥä½ķ 107999
imat 77332
rzÄħ 133676
Ġdetermine 8253
(be 66606
_SAFE 57970
ç¬¥ 120719
ĠRichardson 45723
Ġdá»ĭ 127657
GS 16522
Ð»ÐµÐ¹ 126882
à¸Ľà¸·à¸Ļ 141099
ĠSearch 7542
Ġbulun 140373
å®½å®¹ 113173
çŁ¥å·± 118422
Ġfiat 53830
Ġtwee 72608
ĠhtmlFor 32193
(getApplicationContext 31567
ĠNike 33144
ĠÐ¿ÑĢÐ¾ÑģÐ¼Ð¾ÑĤÑĢ 140669
ONES 60289
/: 11315
Ġeuros 32488
Der 22171
_MR 82153
DataRow 51266
=w 63417
Ġconstitute 34156
Ġextracts 47962
nnen 19294
_RED 33737
(permission 95528
uco 94414
Ġadvertising 12876
ĠÐ½ÐµÐ¾Ð±ÑħÐ¾Ð´Ð¸Ð¼Ð¾ÑģÑĤÐ¸ 142280
ðŁ¤¾ 147950
_INT 9161
_accounts 55665
_Unit 80481
_call 13429
åĨ° 100038
éĢĶ 99863
<main 90868
çĮģ 120458
osals 85975
ToEnd 66573
âĶģ 59215
ĠPoison 51112
Ġcarbohydrates 61245
ÑĥÐ½Ð¸ 141807
Ġamazingly 62515
Ġpartager 96348
-floating 89651
Ġreceptions 80193
Ġsearchable 73643
Ġsilently 49394
ĠTR 4984
DetailsService 72382
ĠÃ¼crets 137568
çŀ¥ 116137
<Any 86712
.hit 55066
atories 37170
åŁİä¹¡å±ħæ°ĳ 116863
ä»·æł¼ 97480
.Position 21954
ï®Ķ 147189
/display 73329
âĢĻil 43896
ĠEdition 14069
Ġbother 20147
apl 72289
ĠGenerator 28358
.bed 90346
.history 23430
elastic 61964
osite 87742
ä¸įåıĹ 107524
assistant 77091
×©×Ļ×¨×ķ×ª 132422
_navigation 58051
åħļåĴĮåĽ½å®¶ 115314
×Ĳ×ŀ×ł×ķ×ª 134457
Ð» 3038
ÙĥØ§ 128831
çļĦåĦ¿åŃĲ 108621
%). 52072
à¸§à¸´à¸Ķ 142100
é²¾ 123641
íĵ® 151551
åĪĨæĶ¯ 103799
Ġexplaining 25021
ORT 2868
utor 4831
Ġdispens 35593
ä¸Ģéĺµ 105218
lid 61206
oria 10782
tÃ³n 134823
åīĬåĩı 115688
ë¸Į 131196
_addresses 59471
ectl 52669
.OnItemClickListener 79827
Ġbounded 61115
ĠØ§ÙĦØº 125110
é£İåħī 106686
ê²» 147413
_CONTAINER 50689
ĠNortheast 44580
Æĸ 147601
è¿Ĳè´¹ 117060
%).ĊĊ 94081
ĠcreateContext 83674
+' 6829
åĳ¼åĴĮæµ©çī¹ 114829
.checkSelfPermission 86883
Ġsscanf 61913
á¾Ķ 151473
å¿«è®¯ 113470
Ġjanvier 93711
Ġmill 2544
definitions 48563
æ°¢ 102858
ĠiTunes 13025
?"ĊĊ 11974
æĬ 23433
ðŁĦ² 151368
×Ĳ×Ķ×ĳ×Ķ 132340
ctl 12373
_chat 35053
åĤįæĻļ 112018
Ġfram 59643
ä¸Ŀè·¯ 116960
VAR 33040
è®©æĤ¨ 111404
Ġhalves 74112
Ġgracefully 78499
Ġdra 44096
çº 22247
Ġurgent 33671
à¸ĺà¸´ 124568
ĠTumblr 43599
_FACT 36299
ĠHal 19851
Ø£ÙħÙĨ 133743
ĠMeasurements 76817
ĠNÄĥm 133670
ÐµÑĢÐµ 125864
×ĺ×Ľ×ł×ķ×ľ×ķ×Ĵ×Ļ×Ķ 138845
ĠGraduate 43725
Ġprofess 34478
ãĤªãĥª 143137
åĢ« 113634
Ġounce 53708
Ġarisen 89854
Ġbutter 14100
è¡¡ 99967
-country 55871
Ġarmies 46883
Ġmixins 93980
ãģįãģ¾ãģĹãģŁ 126438
å¾Īå®¹æĺĵ 104892
ĉrange 75087
ĠPCI 27789
utron 74148
×ķ×¦ 123926
cessive 86628
ireccion 31505
ovan 42657
æµªè´¹ 105214
Ġjlong 74254
EDIT 16949
å¿«æĬ¥ 116519
ĠShrine 93474
.randomUUID 61842
oco 13140
Ġo 297
Ġreconnaissance 87505
ancing 8974
âĶľ 144663
ngthen 18465
åĲĵå¾Ĺ 114446
ĠDevices 40377
HO 23818
estring 65040
éĵ§ 120698
Ġdevelopmental 46906
éĢłæŀĹ 116681
ensitive 18723
ĉaudio 83290
ĠCler 40776
ĠclearTimeout 53225
(parser 35335
ÑģÑħÐ¾Ð´ 133190
ĠâĶ 22612
manent 32754
ĉdistance 98052
lt 4832
ĠLauncher 52230
Ġboth 2176
Ġventas 99019
Ġconservative 15332
Ġ×ľ×¢×ĳ×ķ×ĵ 132076
ëĬĻ 144813
ĠÙħØ¨Ø§Ø´Ø± 127922
Ġfalse 895
æºĲå¤´ 107712
(Environment 48018
ĠApproval 63777
Ġoffences 50212
ÑĢÐ¾Ð´ 126284
ç®¬ 121454
ðŁĻħ 146386
unnel 40292
ï®ĭ 146649
ĠNF 44727
æĬķè¯ī 104943
ĉd 2698
Ġfunctionalities 92080
AxisAlignment 14795
_organization 82352
åºĶçĶ¨åľºæĻ¯ 116541
-orders 85051
×¡×Ĵ×ł×ķ×Ł 138805
çŁŀ 123116
(environment 67591
Ġinlet 79107
.Assert 11711
æľ¬åħ¬åı¸ 104991
ä¸įæĢķ 105989
çĩĥæ²¹ 110340
=pd 67295
Ø±Øª 126458
ĠURLs 35006
Ġdemo 16661
Ġlet 1077
Ġtouchdown 25027
áĶħ 151531
ĠBukkit 94672
Revision 33602
æ±Ŀ 108353
agem 14661
åĢ¨ 120442
Ð¿Ð»Ð°Ð½ 140755
ìĿ¸íĦ°ëĦ· 138697
Ġoss 30059
à¹Ģà¸Ĺà¸Ħà¸Ļà¸´ 137198
Ġ×Ľ×Ĳ×ŀ×ķ×¨ 138338
(jsonPath 69169
ĠÑģÐµÐ· 135070
ãģ¤ãģĳ 125783
å¹²åĺĽ 112102
:" 2974
_dataframe 77570
×ĵ×¨×ļ 125836
roupon 47003
_spacing 63328
ImagePath 66356
ç¿¡ç¿ł 109498
è¾² 107556
èĪħ 101849
iÃ§Ã£o 38080
Ġlegitimacy 55908
çİ¯å¢ĥæ±¡æŁĵ 113900
Ġserialize 24235
ĠĠĠĠĠĠĠĠĠĠĠĠĠĠĠĠĠĠĠĠĠĠĠĠčĊ 65317
.MenuItem 42447
æĹ©ãģĦ 140154
ĠÐ´Ð²Ð¸Ð¶ 141046
à¸µà¹Īà¸¢ 124440
Ġincorrect 15114
ÜĢ 149970
xious 29251
_learning 67291
-basic 51002
æŀĦä»¶ 115531
Äĥm 77354
oux 40570
Ġgemacht 69876
ç»´æĮģ 104601
Ġqualify 25384
wine 71437
Ġpc 13312
åĮį 120186
-text 9345
ĉdefault 11940
×ł×Ľ×ķ×Ł 138638
{-# 34376
é¢ĨåħĪçļĦ 109162
ĠRh 17968
Ġchicken 16158
Des 4896
åīįæīĢ 110213
-form 8460
Ġbidi 79922
áº±m 125831
.prof 92505
>"). 61032
ÑĢÑĥ 19763
.sh 2395
ç¾¤å²Ľ 116233
ahir 50998
.Service 13860
Ġswal 49354
è¡Ĺéģĵ 104079
_WAKE 76221
ĠPassenger 67634
.getLogin 97296
æ©Ł 100482
ĠGilbert 44992
ĠCrushing 40394
.eof 72054
Ġcomplained 33970
é¬² 120340
ĠJackets 85564
ione 6339
Ġfights 27433
Â¾ 67396
Ġ×¡×ķ×Ĵ×Ļ 137309
ìĬī 148345
die 26493
ëĭ· 144448
äľ 122174
èį¯æĿĲ 114986
Ġ×ĳ×ĳ 125644
/"Ċ 29555
rij 20279
Ġreserve 20499
Ġzwar 82664
ðĿĵ¦ 151319
ban 6850
boolean 6117
}}"Ċ 95063
æĪĲåĪĨ 105024
ĠInnovative 97569
åĦ¿åŃĲ 102067
.predicate 94591
aise 4016
elps 83619
_birth 52973
ĠSubset 73223
ĠUrs 70038
ĠÐ¿ÑĢÐµÐ¿Ð°ÑĢÐ°ÑĤ 133694
FTWARE 8247
$args 58571
Ý§ 150399
ĠÃİ 59108
ç¿Ĵæħ 113943
Ġtires 30700
Ġbonuses 32221
å¯ºåºĻ 114308
Ð¨ 127131
æİ¾ 120871
=NULL 27980
Ñģ 2247
âīĤ 149640
×ŀ×ĵ×ĳ×¨ 132181
Ġhumidity 37093
Ġ×Ļ×Ľ×ķ×ľ×Ķ 132509
åı¯ä»¥éĢļè¿ĩ 105125
ĠwyglÄħda 133564
æĺ¯ä¸įä¼ļ 112572
deposit 60514
_decay 43260
FileDialog 26596
Ġsentimental 91938
ĠJer 8403
ĠØ§ÙĦØŃÙĤÙĪÙĤ 143056
èļĮåŁł 118742
Ġë¦¬ìĬ¤íĬ¸ 83634
Ġhelicopt 27367
Keyword 34481
ITLE 15286
\x 3462
Ã©e 7888
à¸£à¸¸à¸Ļà¹ģà¸£à¸ĩ 141740
Ġlesen 75182
Ã©vÃ©nement 138536
ĠOutstanding 75341
çº¿ä¸ĭ 102431
]},Ċ 57352
íĭ± 144333
ĠHDF 80240
Ġspecular 85417
ĠQPainter 97337
ICH 32829
à¸Ľà¸£à¸°à¸ģà¸Ńà¸ļ 130295
ÙĨØªÙĩØ§Ø¡ 138211
åĹĸ 120936
(down 94821
annie 71076
è¬Ĥ 103780
åħ±çĶŁ 117008
Ġactivity 5702
\Catalog 96463
xxxx 18516
Ġoutward 50946
snap 48854
Ø³ØªÙħØ± 127480
ÙĤØµÙĬØ± 137362
essay 79977
èĢĳ 122472
={} 68085
åĩıåĢ¼ 118414
ĠAless 69785
Ġdáº¡ng 130249
Ġstored 9768
éģ 29150
Ġcleanse 80055
ĠDebian 56607
REV 72487
çĥŃå¸¦ 111074
Ġmary 84630
çŀ© 103480
ĠTristan 96590
_changes 47526
.asList 25524
_PICK 74032
jal 47692
ì¢¡ 149291
åĽ¾çīĩ 45930
ĠMessageBoxButton 97603
/AP 59129
klass 54422
ĠUsername 29545
Ġrecipro 66542
_SS 57207
Volt 96369
Ġunreliable 66029
Ġalterations 59986
Ġë³´ëĤ´ 141836
Ġnáº¯m 135905
school 21850
_plain 41015
justice 38768
Ê» 145437
èµŀèªī 115786
_functions 31708
ï¿¦ 148097
æĻĵ 100214
ç»©æķĪ 107039
Ġdere 25277
reamble 86706
ĠPit 38979
/request 53007
Ask 26172
×ĳ×ľ×¢×ĵ×Ļ 143325
ĠFStar 48150
ĠShaw 35185
ĠÙĪÙĥØ§ÙĨØª 135415
woocommerce 26470
Ġbenefits 7567
MES 87711
×ŀ×ŀ×©×ľ×Ķ 142692
sse 64513
çº¿ç´¢ 105814
ê¸´ 133507
ä¹Łè¢« 107036
.dto 21255
ĠGlÃ¼ck 135972
cookies 44317
éŁ³ç®± 117738
Ġcarro 43900
extension 12427
Ġsafer 29449
ç¯ĵ 119490
Ġcaptains 89884
ĠAnnotations 93332
Ġplaintiff 42002
/engine 82045
ÑĩÐ¸Ð½ 127228
éĵ¡ 120694
íķ¥ 145580
builders 98507
("{\" 99141
ĠRedis 34158
ĠSaves 65567
ĠsetLoading 48589
Ġ{{{ 47908
(square 86344
Ġcut 3931
Ġobservers 36543
Ġconcludes 44437
Ġcombo 22734
Ø¨Ø§Ø± 124422
è®¨è®º 104075
Route 4899
åħ¶ä¸Ńæľī 111118
å¼Ģåĩº 112076
æļĳæľŁ 111970
éĢĥèĦ± 118260
ãģ¿ãģŁãģĦãģ§ãģĻ 138301
ãİĿ 144712
Ġconsolation 98858
-Time 54485
ðŁĹº 147124
ĠÑĢÐµÐ°Ð»Ð¸Ð· 139754
ĠPHI 84835
ĠSusp 52206
á±ļ 150580
è¹Ĳ 123612
çĺ¿ 121815
ð¬£Ļ 122145
-placement 51563
(stderr 12860
adm 46929
ewise 24350
_ONE 34727
æ¸ħæ´ģèĥ½æºĲ 114425
çı 79142
Ġfret 53064
ãģĹãģ¦ãģĬãĤĬãģ¾ãģĻ 134529
Ġnumeric 24064
ï¯¤ 149137
endor 8029
à¹Ģà¸Ĺà¸Ħà¹Ĥà¸Ļà¹Ĥà¸¥ 132096
ĠRout 92022
æİ¥çĿĢ 102524
ïºĢ 145280
Ġgiants 45209
aspers 87629
ĠìĹ¬ 83518
-linux 46375
_gc 49423
Ġ[. 48339
...ĊĊĊĊ 26578
Ġexploit 32194
ĠÂµ 62912
ĠMike 11268
ĠNullable 52655
ĠÑĢÑĭÐ½ÐºÐµ 139930
SnackBar 54376
ãģ«éĸ¢ 127349
Ġgray 17545
Ġrecon 16070
President 26137
ĠMarina 51536
Ġrá»ĳi 138615
é²Ĺ 123373
è°ĥçļ® 118744
çľĭä¸Ģçľĭ 113848
ï¼¾ 67130
ĠPÃºblica 140006
Ġhanging 20704
ä¹Į 100444
Servers 78139
merc 64422
.Dynamic 42101
ĠdeltaTime 58479
rum 10721
Subset 70584
å·¥åľ° 106452
ĉbyte 31422
ĠonResponse 56236
.cam 55740
-navbar 52332
Ð¾Ð»ÑĮÐ·Ð¾Ð²Ð°ÑĤ 39334
.ca 24138
ðŁįĲ 148707
Ġpeoples 31438
faction 90309
ĉGameObject 53520
#" 55543
IKE 71966
))- 64540
ĠStatusCode 53403
Ġnearly 7009
Ġtq 35885
Carlos 92499
ĠEngineering 16595
ĠKristen 76114
æŀ¸æĿŀ 114002
å½ĵåľ°çļĦ 109233
_DOUBLE 33839
ç°° 123690
ì¡°ê±´ 136585
Ġlong 1293
ë¶ĳ 147301
Accounts 41369
âĹĹ 146152
ì¸¡ 132612
ç¬º 120713
Ġexporting 60221
çİĭåĽ½ 109289
Finance 78088
åķŁ 103564
æĿĳ 99277
ĠRotary 74856
ìĤ· 150305
à¹Ħà¸Ľà¸ĸà¸¶à¸ĩ 138934
Ġ"", 7342
.getConfig 59758
(register 68166
avo 27217
untu 18230
](" 73269
:pk 94541
é¡» 100360
Ġmultiply 30270
_rate 9246
igrant 56019
à¸Ĳ 124289
á»± 61031
å¶² 123454
Ã©po 140253
ĠyardÄ± 133344
.i 8607
çĹĽ 100406
Ġdragged 37147
âĢ¦" 55109
é¼¬ 121991
Ġmaximizing 87178
é¡¶éĥ¨ 111446
ðĿķĭ 151330
Ġhecho 49302
Ġà¸ĺà¸±à¸Ļà¸§à¸²à¸Ħà¸¡ 142699
EMAIL 35904
[DllImport 95928
enerator 15312
èĻĲ 103478
-length 29325
ĠHawks 56612
Interfaces 41066
Ġcook 4296
_Bool 79948
á¿ĩ 147688
ãĤĵãģ§ãģĻãģŃ 140137
-separated 72692
')}Ċ 30949
éĢĤåºĶ 104117
ĠArgs 17693
ĠÃ¶lÃ§ 137202
-script 65960
Ð»ÐµÑĤ 128716
ĠgÅĤ 65689
ĠWinston 47108
oque 60552
à¸¥à¸°à¸Ħà¸£ 133960
âĨ¯ 149284
ĠÃ¥r 33980
çĶŁæ´»æ°´å¹³ 112733
à¸Ĺà¸Ļ 136155
.StartsWith 49779
æŃ£å¥½ 105872
bows 54531
ĉenum 37777
accine 88021
aked 7741
ðĿĴ 123893
èļķ 109208
Ġcharge 6757
å°ıå·§ 118685
å°ıä¼Ļä¼´ 103291
ĠconnectionString 62084
Ġaccesses 77648
Ġmistress 65094
)this 31740
iated 10029
ĠPoland 27602
Ġaccomplishment 60138
cles 18638
Ġnonzero 72232
(NUM 78928
ĠBEGIN 22203
Ġescaping 52654
(events 50496
.listView 66851
à·Ģ 147878
ä¸ªäº¤æĺĵæĹ¥ 115603
åĲ¯åĬ¨ 101159
Ġcalling 8098
ĠÑĤÑĢ 85895
RICS 84172
å¼ŁåħĦ 117320
ï©¨ 149354
scribers 46361
ä¸»åĬĽ 102579
Ġ(...) 65777
ĠBarker 80404
çŃĢ 123042
=mysqli 30772
pb 16650
Ø·ÙĬØ¨ 136114
.fil 88693
ĠEpidemi 87853
ĠLegend 26935
ĠvÆ°á»£t 132629
owoÅĽÄĩ 140615
çļĦæĥ³æ³ķ 105424
_BOOT 57313
RTOS 90344
_EMP 68784
-property 61401
ardo 20473
elaide 44093
ç½½ 121887
AuthToken 84708
è¾ĥå°ı 109413
-sum 75811
Cloud 16055
Ġflee 27400
Ġhandlers 24083
åĨĻåŃĹæ¥¼ 111960
$password 57179
curities 30602
ident 1713
Ġbookings 58520
Ġdependencies 19543
_Register 73124
ãģ®ãģĶ 133551
_streams 74872
è±ªå®ħ 113387
åħ¨æĺİæĺŁ 118697
rost 41502
à¹Ģà¸Ķà¹ĩ 125564
Ġgradient 20169
PILE 58458
Law 38066
ĠCFR 69821
Ġsolutions 9904
æĶī 122004
ë¿ľ 145153
ĠDetailed 62665
sizei 60643
ĠÄĳá»ı 131928
Types 4173
Ġforcibly 73823
Ġspice 41686
×ł×¡ 124216
ç«Ļåľ¨ 104224
Ġmarketplace 29533
ĠÑĩÐ°ÑģÑĤ 127174
...Ċ 9338
-eng 96102
Ġwarmly 96370
(cancel 92562
mod 2593
ä¼Ĭæĭīåħĭ 113790
Std 22748
getStatusCode 76537
æĪĲä¸ºä¸ĢåĲį 118255
-wheel 61627
æħ·æħ¨ 118009
æıª 114707
ìĺ¤ 57268
/plugins 20797
ĠPlace 10771
ä¹īåĬ¡æķĻèĤ² 110765
.setViewportView 97027
onacci 39345
ĠCI 20694
Ġfriendly 11657
Ġindispens 56460
Vi 35544
Ġbajo 62412
Ð½Ð¸ÐºÐ¸ 129309
ĠWith 3085
)" 9940
Important 52280
ç©ºéĸĵ 109911
ĠBro 5906
çļĦéĥ¨åĪĨ 107625
fone 31341
×§×Ļ×ĳ 141215
OWL 82185
boys 29023
ðĲŃĵ 151502
Ġhmac 83356
åŃĺæĶ¾ 110732
indsight 78860
ĠOu 68227
Ġknowledge 6540
Ġdecoder 24551
èį© 120049
åıĳçİ°éĹ®é¢ĺ 115058
-thinking 98951
orks 73302
çĥľ 120488
)^ 29776
Ð¸Ð»ÑĮ 66502
_alloc 14802
arsing 28598
è®©ä»ĸä»¬ 105380
ĠUF 68592
Ġdisobed 91583
Ġinterfere 39878
ĠthÆ¡ 130917
prestashop 91292
.Dec 22442
ë£Ĳ 149750
ÑıÑģÑĮ 132890
ØªÙĬ 124787
éĨ« 100616
ĠvÃ©hicule 140423
Ġhelicopters 58332
åĽ½å®¶éĩįçĤ¹ 115266
Ġ×ŀ×¦×ķ×ķ×Ķ 143653
mentation 31099
Ġvirt 12763
ĠPreis 60939
.Blue 60159
ĠLarge 20286
å§ĭãĤģãģŁ 139136
Ġhomes 10415
è¯įæĿ¡ 114841
backs 24113
Ġdelicate 35201
Ġsemester 33153
_redirect 30043
Ġtide 41938
åį«çĶŁ 100200
itters 28063
å¼·ãģĦ 132421
Ġcreated 3465
Ġparted 84056
Ġtoxic 20836
Southern 85738
META 79886
ĠVietnam 22500
agascar 78675
ðŁĳ³ 148203
.Dir 83757
Ø°ÙĦÙĥ 124895
Senator 70546
èĦ±ç¦» 108212
ë¸Ģ 149760
ìı¸ 149098
ï¦ĵ 148424
!! 2928
æķ£æĪ· 116902
çĪ¿ 119552
èĬĤçĽ® 100793
ĠsÃ³ 31090
åĳĢ 104256
×ŀ×¦×Ĳ 126449
Ġeternal 34725
ä¹³ 100489
ĠMafia 80895
_os 29387
istrict 8391
.deepEqual 48134
åįģä¸ĥæĿ¡ 118263
ĠBob 14261
ĠsÃ¢n 130514
Ġunbiased 73215
/IP 84438
[])čĊ 92190
çĶµåĬ¨è½¦ 106698
\Json 60612
éĩĮçļĦ 102073
Ġchá»ī 98127
Ġdrains 78650
ificaÃ§Ã£o 81451
ics 1211
_ENT 16241
ä»ĭåħ¥ 107174
èĬ¡ 119672
âĢĻaut 56187
ĠAlert 13975
Aggregate 64580
ĠToy 21603
.Text 1979
Ġdáº§n 134724
åħ¶ä¸Ń 90919
ÐµÑģÑģ 93420
.BLUE 76421
Ġori 58635
Ã©g 18863
à¸¨ 123863
å®īãģı 137314
Ġjedem 94885
.hp 50634
èŁĬ 121952
Ġqueens 68997
ĠÐ°Ð´ 142742
idal 25880
.fi 61786
éħ¥ 109881
_undo 98940
à¸Ĺà¸´à¹īà¸ĩ 136258
_simps 79572
akte 28815
.gridColumn 41188
æŁ¥èİ· 116890
èµĪ 120687
ĠElf 43600
ĠMentor 91191
-response 58469
ĠØ¬Ø§Ø¡ 131813
ITER 24733
Ø±Ø¨Ø· 139068
ĠâĸĪâĸĪâĸĪâĸĪâĸĪ 92329
Ġ×ŀ×ķ 128299
()<< 51076
ĠÑħÐ¾ÑĢÐ¾ÑĪÐ¾ 133097
æĽ´å¥½ 100810
Ġprm 82719
ĠDorothy 72558
holder 4251
revision 28342
.site 22115
Indices 31941
ĠSymbol 19612
ĠContemporary 47202
é£¨ 121094
/';Ċ 43886
ĠThousands 62194
comparison 54705
ä¹Łæľīå¾Īå¤ļ 111259
iet 3891
oriented 32436
æķ´é½Ĳ 109489
opacity 20570
.video 27620
Ġwarehouse 30112
çĶ³èĬ± 118849
Rest 12416
_MS 36147
Ġ..., 60353
åı¯ä¸įæĺ¯ 112404
éĺķ 121035
IFY 15189
ugar 8566
.debug 7883
åħ°å·ŀ 106091
ĠPOV 74521
æľºåħ³ 100776
Ġalguna 72027
.dtd 60140
Ġsurvive 17697
.setType 42433
ãģĦãĤĦ 134351
ĠField 8601
Ġjours 48201
ĠElev 54564
inges 40399
JECT 7430
\Security 57392
ç©ĳ 121784
})ĊĊĊ 43060
zech 25751
endency 21213
"fmt 21871
æĮĩå®ļ 105146
Ġcosm 55654
(Parameter 86812
×¡×¢ 132588
åīįå¾Ģ 104374
ï»¢ 144847
serializer 52718
ãĤ¢ãĥĭ 137085
ØŃÙĥÙĪÙħ 127425
ctype 17211
pler 12910
:String 15816
.LastName 54549
ĠShapiro 79731
Ġdispos 53140
ä¸Ńæŀ¢ 116124
Ġeu 15555
åį¿ 106987
Ġtaking 4633
+p 70001
ĠvÆ°á»Ŀn 138791
èĢ³è¾¹ 114776
ĠDul 62615
-coordinate 80697
ĠMontgomery 43025
achel 14770
äºĮæīĭè½¦ 108642
åĽ½ç½ĳ 113136
ARB 49064
/rc 95502
å¾Īå¼Ģå¿ĥ 113368
å¹´çĶ±çĽĽ 117968
á½¦ 149623
(sentence 56058
_Release 85573
ĠÐ¿ÑĢÐ¾Ð² 61215
è¿Ļä¸ªéĹ®é¢ĺ 105073
åĿ¡ 101338
äºĭåıĳ 111810
ðĿĴ· 151311
Ġreaching 18739
à¸ĭà¹Į 132622
èĦ¿ 123055
Ġanders 66653
compan 44249
egral 26821
ãĥĨãĥ¬ãĥĵ 131673
×©×Ļ×Ĳ 131890
LAY 63557
ãĥĢãĤ¤ 127689
ucking 46170
âĩĢ 148797
æĭ¥ 100151
ï¼µ 144095
åŀµ 122413
ðĿĻ¸ 151577
ĠKernel 36603
stats 16260
ĠCOPY 12249
Ġforbidden 36813
Ġlake 21800
ĠÑĤÐµÐ±Ñı 139596
éĩİå¿ĥ 115922
Sanders 82780
typeof 10222
ĠëĤĺëĬĶ 132311
Ġenlightenment 80769
={ 1165
åĢºæĿĥ 103384
íĢ´ 144480
å±±åĮº 105450
æ¯ıä½į 109567
ìľ¾ 151487
Ġgf 41888
ĠFolder 35843
æĬĬèĩªå·± 106081
Ġp 281
Ġshift 6407
×ĵ×¢ 131845
.word 22579
ä¸° 99638
ï¦Ħ 149814
=m 27221
Ġ-, 85922
_cpus 90673
è½ 15213
borrow 71141
Ø¹Ø±ÙĪ 137848
Ġhumiliating 91738
åºķå±Ĥ 110413
Ġinformant 92021
ĠExpires 97410
-interface 82954
ĠNeighborhood 61512
ĠjÃ³venes 139011
Ġsavvy 63728
à¶« 150453
éĩľ 119086
mr 20946
sÄ±nÄ±n 130182
ĠXi 42426
ĠLegislation 71967
×¡×ķ 129631
æī® 100596
_si 40983
ĠNG 20018
ĠWritten 33891
.scrollHeight 90859
ç§¸ç§Ĩ 112907
=User 94255
ĠPirate 61148
ç«ĭæ³ķ 106624
.setProperty 31233
_Speed 87058
=P 76778
ïŃ± 151172
Ã¡o 77689
ðŁĵĭ 147193
ĠHÃ´m 143958
ĠLaurie 79523
Ġconfirmed 10774
ServiceProvider 32604
Ġmij 68397
Das 32617
Ġdistint 73378
×¨×Ĵ×Ļ×ľ 131769
åľ¨çº¿è§Ĵèī² 117798
ĠBÃ¼yÃ¼kÅŁehir 140018
èģļçĦ¦ 104536
áº¾ 134580
ï°¢ 151205
parentId 53548
ĠOwl 73695
.jsx 40940
-web 29431
nummer 67919
ĠØ§ÙĦÙħØ±ÙĥØ² 131052
oklyn 82187
[c 12447
klÃ¤r 77131
Ġsmarter 46478
Ġifdef 68971
éĺĪ 120763
Ġdeep 5538
Ġunus 15857
IE 5371
ĠPicker 85383
Ġnues 84760
Ã§i 126325
×ľ×ŀ×Ļ×ĵ 127583
Ø¹ÙĨØ§ÙĬØ© 143630
Ġverifica 91071
çŃīåĪ° 106200
.temp 32669
éĿĴæĺ¥æľŁ 118623
íģ´ 134644
à¸Ľà¸£à¸°à¸ª 133242
redicate 16874
consumer 46764
åħļå»ºå·¥ä½ľ 104632
Ġoffering 10004
Ġinnovations 44945
êºħ 148132
Ġà¸ªà¸´à¸ĩà¸«à¸² 142446
Ø§ØŃØªØ¬ 142688
isors 41214
-cmpr 97971
)!= 35200
odate 87011
èĢĮå·² 104606
åħ¥åı£ 105333
ĠVij 78027
Ġnut 9979
ä»Ģä¹ĪåİŁåĽł 117109
ĠÄĳÆ°Æ¡ng 138051
'])Ċ 7368
ĠìĿĺ 124970
à²¶ 150094
ĠBass 35953
(raw 22460
Movement 38050
insula 35373
net 4711
åĩłåı¥ 111350
GV 39718
ëĪĪ 134182
ĠTFT 98601
éĢĲæŃ¥ 104137
åĩ¶æīĭ 118059
(out 9828
ĠgÃ¼ne 142397
ĠNobel 46978
ĠIcelandic 99148
-sn 75450
Ġscam 34626
ousse 45551
ĠlazÄ±m 140507
submitted 72463
ččĊ 5928
PRINTF 52744
à¤ŀ 148492
Ġymax 56078
ĠÐľÐ¾ 129494
æºŀ 123099
uset 18187
ĠCommander 34138
Ġlawyers 21177
Ġtuned 32419
ĠDiameter 75561
ÙĬÙĦØ© 129536
Ġnaked 19020
Ġretrieval 56370
dac 82549
ãĤ«ãĥĥãĥĹ 139291
à¸§à¸ģ 124936
å¾ģæĪĺ 118811
è·¯çº¿ 104844
ÌĢ 96549
×ľ×©×ķ×Ł 138707
EÄŀ 143351
team 9196
.childNodes 50038
ĠngÃ´n 137425
/ca 80591
ä¸ŃæľŁ 107886
URES 50661
ĠbÃł 129302
Ø¨ÙĨØ§Ø¡ 129196
æ² 30006
',// 86797
ĠHarper 32007
wealth 30533
Ġlien 54420
ventas 97101
ï¿½s 50963
ĠBrushes 66872
.getBean 60325
ĠTheir 10964
cke 60273
Ġenhancements 58529
Ġmio 69012
Ġsuit 7781
ĠÄĳÆ°á»£c 63478
ĠØ§ÙĦØ®Ø§Øµ 131216
ë³ĵ 149091
é£İæĻ¯ 104996
Ġratios 41238
ĠFach 78765
ÑĪÐ»Ð¸ 131483
åĨ¯ 104822
<!--Ċ 89650
ĠInterr 79380
_BROWSER 72500
(scope 32013
.arg 21186
è¨ĺäºĭ 76119
Ġdusk 92885
ïŃĭ 146267
Ġreq 4232
ĠÙħÙĨØ²ÙĦ 138594
Ġbluff 96288
Ġ:: 3504
Ġjudgment 19407
ðŁįķ 146268
Ġsounded 34308
Ġcollege 7770
ĠBackup 43438
Ð½ÐµÐ¶ 136916
ÑĤÐ¾ÑĢ 36673
èĿ¥ 121693
Ġanimated 11371
laces 76588
ĠsetState 21450
éģĹçķĻ 114253
ĠPhilips 73503
deaux 61915
ä¸ĩåĲį 110901
Ġrights 3188
lookup 21020
Ġ{$ 13924
childs 86500
igung 42603
×¡×ĺ×ķ×ĵ 137629
Ġcabins 88301
IZED 51538
ÙģÙĨ 126456
itated 32237
copy 8560
é³Ĵ 123697
ĠÐ¿Ð¾Ð²ÐµÑĢ 136225
istant 11202
åĪ©çİĩ 102299
=b 22086
æģĲæĢĸ 105439
LANGADM 75271
Ġcaller 19865
Ġconsole 2339
å·ŀåĮº 111765
ĠÙħÙĪØ§ 142685
ĠMad 9483
Ġstaunch 81621
ĠØ§ÙĦÙĤ 124172
à¹Į 55770
ĠĠĊĊĊ 79226
<|im_end|> 151645
à¸Ķà¸±à¸ļ 125577
ðŁĹĿ 147840
á¥± 147505
Ġ}ĊĊĊĊ 16968
GPIO 26337
_SLAVE 74418
ĠRoberto 54083
çī² 102917
.Invoke 32784
åľ¨äº¬ 113462
à¸ªà¸Ńà¸ĩ 126650
zen 5679
aces 2434
-end 13068
Ø²ÙĪØ§ 134837
æĵįåľº 116871
bindings 65495
çĸĹç¨ĭ 116855
ĠWindsor 56455
UiThread 75392
é¥¯ 119932
á¼Ĳ 145180
ĠØ§ÙĦÙħÙĩÙĨÙĬ 142823
igkeit 50499
difficulty 71864
ertainty 80146
åĮºåŁŁæĢ§ 116682
Ġcoff 9894
homes 85272
ê¦Ł 150833
listed 31240
Ġalright 50117
ðĿĻİ 149903
ĠCOP 67572
Ðµ 1504
ĠÐ¿Ð°ÑĢÑĤ 140509
-neutral 91222
MF 31607
QUE 5595
æĪı 99293
/logs 77554
>Edit 75177
ç¦ģæ¯Ĵ 114922
ĉctx 20985
Ġfather 6981
Ġsá»ĳng 128480
à¸«à¸±à¸Ļ 139933
=a 24239
ĠVox 79612
sendMessage 61957
EB 8264
äºĭ 29826
ì¿Ħ 144818
Ġimporting 49895
Ġpopularity 22538
ĠÐ¡ÑĤÐ° 131486
ĉap 69898
åħļé£İ 111102
ĠTre 12475
imiento 16320
Ġadvisable 68819
capacity 37387
ĠÅĤazien 143162
onomic 47128
iations 17144
Ġcorrelations 68816
éĶķ 120966
çĭŃ 103465
ÙĦÙĬØ¨ 138225
à¸Ħà¹Ī 124530
SEND 61674
_equalTo 55522
è¨Ī 81320
è§Ħ 74386
Ġbillion 7094
lington 42647
Ġmixing 26792
Ġì¡° 65510
.Te 94849
Reducer 20874
UFFIX 53733
olson 71538
å®ŀéĻħè¡ĮåĬ¨ 111342
.ColumnHeadersHeightSizeMode 72129
ĠPIXI 93570
ĠĠĠĠĠĠĠĠĠĠĠĠĠĠĠĠĠĠĠĠĠĠĠĠĠĠĠĠĠĠĠĠĠĠ 9699
æĬµå¾¡ 113917
Ġdeeds 53711
-counter 63189
ĠTyson 62814
èµ°åĬ¿åĽ¾ 111537
ĉF 12727
ìŀİ 144667
Ġ=čĊ 32203
ĠÐ´Ð¾Ð± 140444
çĶ· 70108
Ġcrate 17717
(numero 90178
ĠPs 11802
Ġfiltered 18293
.paper 77338
ĠAdvantage 70359
Ġasym 53295
Past 50113
bugs 56176
ĠStafford 62474
Ġ[" 4383
âĢĶare 82772
èĺĳèıĩ 114231
ĠFatal 65629
Ġcourts 18828
Ġorchestr 65128
Ø²Ø§Ø± 141574
ï¾Ĳ 144941
å¢ŀéķ¿çİĩ 112687
ĠSpells 78053
NavLink 31181
SHARE 78171
unic 3525
.course 36282
«ĺ 40419
ç£´ 121868
è®º 67831
Impossible 89655
atomic 6618
ĠManufacturer 34451
ĠÐ´Ð²Ð¾ÑĢ 140732
ìĻĶ 127621
lette 9809
ĠSpears 93955
ĠHin 49633
Ġlash 97281
Okay 32313
_csv 14020
ĠZZ 90181
ĠÐ²ÐµÑģÑĮÐ¼Ð° 143021
ĠSTDMETHOD 39765
ĠVID 83952
_PARAMETERS 71463
Ð¿ÑĢÐ¸ 126461
ç£¹ 123608
çŁ¥ãĤīãģªãģĦ 138428
Ġhappy 6247
Ġpregnancy 19636
Ġìŀĳ 68232
Ġblowing 40342
.effect 63534
âļĽ 148324
å¹³è¡Į 111331
ĠPROVID 15476
_REST 55133
ĠìĿ´ìłľ 132911
])ĊĊĊ 44651
ĠChurchill 57174
ĠIPS 63157
OfWeek 38353
.Listener 64091
ĠCo 3539
(cin 54914
.setParameter 55192
Ġeligible 17013
ĠVanguard 75821
=N 51995
Href 64919
æĳĺç¼ĸ 118799
aters 11535
æĬĢæľ¯ 99361
ĠdidSelect 52379
ĠgameOver 71837
ĠÅĽmier 143255
Ġcounselling 82681
fÃ¶rder 138154
Ġdeactivated 83616
ĠdisponÃŃveis 142462
ĠFairy 55076
Ġë¯¸êµŃ 132662
Apple 26567
_slide 61833
Ġ;)ĊĊ 81142
è®¾è®¡çĲĨå¿µ 117200
Ġvictories 45046
.RunWith 52437
CONS 95494
_ref 7793
å¥ĭæĪĺ 113768
ãĥ± 145447
é¥ºåŃĲ 113132
JR 84692
ĠCarolyn 82258
/q 33894
electric 63365
(toolbar 78458
ÙĨÙĪ 129132
æľĢçµĤ 117167
(rules 90094
owler 64328
actices 89190
(defvar 89385
è´´ 99934
èĽİ 120658
éĢļä¿Ĺ 116336
!",Ċ 33436
Ġtriang 76405
)čĊ 1218
à¸Ł 123975
é£İéĻ© 101052
Ġmol 21609
_fft 67059
Ġëĵ±ìĿĦ 134454
×ķ×ł×ķ×ª 124499
Grad 23999
ĠTodo 25404
ĠSender 54610
ĠAbstract 13513
ĠHalloween 26613
Ġoppon 10359
×©×Ĳ×Ļ×¨ 134301
ĠBer 8907
Warning 12087
IM 1791
.alias 63080
PasswordEncoder 76579
åľ¨åħ¶ 109007
çľŁå®ŀçļĦ 107573
Ð³Ð°Ð½ 132150
.Work 28748
-done 94288
Ëİ 149488
ê°Ī 131498
ĠUlt 20604
ĠcompaÃ±ÃŃa 136453
åĢĻéĢīäºº 111016
ĠClem 45168
]]. 22099
ĠFE 27931
é»¼ 122016
Ġbo 708
Ġpreached 88094
ari 2780
{j 71043
ÐĴ 16206
âĢĿ: 56533
å¼Ģåıĳ 100013
×¨×ķ×¡ 131883
Ġanyhow 88964
Ø£ÙĪØ±Ø§ÙĤ 141149
ĠSynthetic 74828
Ġshows 4933
arshal 28423
itorio 95986
ãĬĹ 146982
Ġoutspoken 69279
åĴ³åĹ½ 109244
ĠÐ´Ð¾Ð²Ð¾Ð»ÑĮ 138163
ä¸ĸäºº 110506
ìĺĻ 147648
Ġbreakout 62688
ĠÑĥÐ½Ð¸ 142644
é¢Ŀåº¦ 108091
èģ· 107037
Ġgears 53160
_POST 20506
inis 84603
ypass 49911
.fits 90014
epochs 46529
-small 33759
Ġstride 19228
ð¬´ĥ 123117
ĠEarly 22752
ĠLight 8658
Countries 71728
ighb 4681
myp 86134
)|( 55178
ĠProcedures 74011
ĠÃ©lÃ©ments 141067
chat 9686
Ġdjango 8262
lations 29656
Ø¯Ø¹Ø§Ø¡ 139000
ĠBayer 85420
TestClass 60100
'? 69990
(strpos 91927
Ð´ÑĢ 62773
æ¦´ 103809
ãģ«éĸ¢ãģĹãģ¦ 134721
aura 21563
åĬ« 102680
Ġencountered 23057
pro 776
hm 34301
å¸ĪäºĭåĬ¡ 114570
(pos 12259
?f 88909
andFilterWhere 84697
ĠKeeps 90820
ĠNavLink 94216
Ø¥Ø¹Ø¯Ø§Ø¯ 135868
Ġdistr 7905
Merge 52096
ĠReleased 44794
Ġreadability 91494
æĥħä¾£ 110104
Ġastonishing 48913
ĠWalt 35267
_FIXED 66300
luent 56067
.getAmount 98131
PGA 58599
Venue 90136
rick 12649
×ª×©×ķ×ĳ×ķ×ª 137482
åĨĬ 100999
ç¤ºæĦı 112267
é£¾ 112801
), 701
.PL 35355
ustria 84812
è¿ĳäºĽ 116735
Ġdocs 26340
Ġfirestore 73993
printw 94095
çķıæĥ§ 117272
Ġoste 51268
æ²»çĻĤ 113593
Ġà¸Ļà¸Ńà¸ģà¸Īà¸²à¸ģ 134353
*& 66100
(resp 20267
ying 7024
â©½ 149691
ĠpequeÃ±o 133894
Ġdecisions 11181
Hur 97328
ĠØ§ÙĦÙĦØ§ 143098
Ġëª 36978
igsaw 86924
]string 30953
ĠrecyclerView 37149
_TMP 71517
ì¢ĭ 144388
ied 1122
ĠÐ¿ÑĢÐ¾ÑĨÐµÐ½ÑĤ 138083
(((( 66844
.websocket 94115
covered 20804
ä¸ªåĪ« 106506
ĠÐ¿ÐµÑĢÐµÐ´ 77657
ĠFacing 95318
/Header 59960
à¿Ģ 150461
Ġsis 52315
(Product 44504
æĽ¸ãģĦãģ¦ 133686
ĠWerk 89423
ĠLINUX 91618
ĠPopular 31395
.au 30777
Ġsubmenu 77397
ì»· 144721
ä¸ĭä»¤ 115566
à¸ŀà¸£ 124426
ĠLegal 24678
.Control 3957
seudo 21952
lectic 67449
ĠGÃ¶r 132906
Ġcharisma 98649
çļĦè¡¨çİ° 105437
à¸¢ 34509
Ġ})();Ċ 92228
ĠTaco 78897
à¸Ńà¸Ńà¸ģà¸ģà¸³à¸¥à¸±à¸ĩ 142827
Ġstocking 79149
Ø¹ÙĦ 123987
.), 24389
Ð±Ð°Ð² 133446
ëĳĶ 144146
ÑıÐ½ 130177
Ġnavigator 35409
<Route 83182
Ġrectangle 22756
+'& 62929
Operand 29940
-tra 79267
Need 23657
Ð¼ÐµÐ½ 37872
ĠUUID 23698
Ġscheduler 28809
ĠÐ¿ÑĢÐµÐ´ÑģÑĤÐ°Ð²Ð»ÐµÐ½ 132363
Ġenforced 44321
ponent 1146
Ġtenth 55666
Ġbisa 39988
FragmentManager 37482
æģĲ 100312
çĵĴ 122052
ðĿĺĨ 148380
ĠinvokingState 87841
×©×ª 124221
ingly 11307
ird 2603
ĠPotential 53957
Ġvitro 53904
åĽ½éģĵ 113391
è¿Ľåħ¥äºĨ 107847
Ġconhec 70483
gemÃ¤ÃŁ 142334
Ġ×©×Ļ×Ķ 138409
ä¸įåĲĮç¨ĭåº¦ 111379
ĠEng 3285
Particle 29008
imity 30935
missive 56928
(Cell 82530
ĠHorde 70382
ĠRead 4457
Ġsedan 54740
ç¨ĭå¼ı 117140
ÙħÙĨØªØ¬Ø§Øª 133979
Ġceremon 42512
ĠÐ´ÐµÐ²ÑĥÑĪ 137980
ç½ĳ 31139
ĠRachel 31432
ÑĢÐ°Ð± 127073
ĠTHINK 92119
esda 68626
Ġchiáº¿m 136514
æİĪè¯¾ 108994
åĪĨå¸ĥå¼ı 112896
ä¸ĢçĽ´æ²¡æľī 113646
_wo 96058
éĩįåŀĭ 114380
Ġtexas 59248
.JScrollPane 62828
Ġexplained 11247
à¸Ńà¸¡ 124462
ÑĩÑĢ 142781
åİķæīĢ 106927
ê¹° 145994
Ġflorida 75654
Ġbolster 47127
osph 23609
USH 19518
å¤ĸåľ° 106924
_race 91317
èµĽåĲİ 114126
ĠDateTimeOffset 78494
ÅŁehir 126966
.pipe 35924
\Exception 26561
è¿Ļåĩłå¹´ 109828
ĠBerg 30682
ï¾ 68405
ĠAtari 83876
ĠRed 3731
ĠRGBA 79954
ĠNaruto 48994
Ġanymore 14584
Ġfst 48434
(sim 47760
åļ¼ 116284
ĠtÃ©r 89635
æķ°åŃĹè´§å¸ģ 118215
UrlParser 80293
inem 68413
ĠâĪĪ 48335
Ġembraced 42503
åª¾ 121328
mar 5612
K 42
åİ¨å¸Ī 114396
è¹¶ 122019
ðĿĺŃ 148268
_submission 75866
Ġbritish 93927
Ġquest 2222
inders 31451
Ġmeses 48984
.eu 35003
Ġtimeline 24808
.skills 89147
ĠSaudi 17904
.beginTransaction 55230
ĠcuÌī 143456
Ø£ÙħØ± 137927
.Can 53280
ĠPromo 57403
ibel 68595
Ġ../ 22082
èģĴ 120872
ä»»æķĻ 117193
Ġ{}. 84412
êµĲìľ¡ 129493
ĠChunk 45513
Ġeach 1817
CLASS 24407
ÑĥÑİÑī 71019
çĬ 99300
ĠINCIDENT 28167
Ġrefere 38908
ĠØ§ÙĦØ¹Ø³ÙĥØ± 138276
'email 83351
,j 10327
+");Ċ 95620
ðĿĲ® 146622
ï¾Ŀ 144057
Ġjihad 41834
ä»İäºĭ 101193
=cv 67470
Une 55848
.astype 43038
RED 6504
à¬ĵ 149343
Jake 94236
Úª 145613
æĹłç©· 109995
çİ°ä»£åĮĸ 104437
Äľ 148273
æĦıæĢĿæĺ¯ 111490
dÄ± 126220
ĠSpir 65047
bel 9779
ç¥ŀåĻ¨ 112906
Award 89540
ìĨĿ 146946
Collections 52730
Ġtotalement 93673
çĭĻ 103886
tÄ±ÄŁÄ±mÄ±z 142221
Ġchois 72561
Ġtrom 64536
Wir 48047
ç®± 73296
à¸¢à¸±à¸ĩà¹Ħà¸ĩ 135161
Ġanche 28057
[maxn 73831
ê·¹ 131529
FTP 56468
ĠdÃ©partement 141055
,,, 60723
-fin 83999
:{} 79411
INGER 76280
[:,:, 64856
");Ċ 797
Ø¬ÙħÙĪØ¹Ø© 127060
æĿ¥åģļ 110138
åľ°æ®µ 112537
ulse 17217
è´Ńç½® 109664
/rules 95489
Ġprofes 34708
ĠGiÃ¡ 131310
ä¸įåıªæĺ¯ 109781
.vo 32909
age 424
åįĹéĥ¨ 106835
posed 3865
æīĢèĥ½ 111079
_O 2232
(ds 33783
_star 31681
/core 5320
ï®¢ 148677
ĠWax 75742
Ġvia 4566
éĺ²æ²» 102681
ridden 42185
ĠkhÃ¡ 128949
è¿Ļç±» 105230
MQ 35169
ĠACCEPT 54906
Ġbrutal 27760
ijo 46900
.mdl 85184
Ġentitled 19867
×Ĺ×ķ×£ 138467
ìŀ¬ 57132
Ġmainly 14576
ãģ£ãģįãĤĬ 136645
ĠÐ¸ÑģÐ¿Ð¾Ð»ÑĮÐ·ÑĥÑİÑĤ 139193
æł¼å±Ģ 101333
edriver 71039
Ġprivile 15531
Ġlately 30345
Tele 21645
ĠCelebration 74100
ãĤ¢ 38780
æĻĥ 106482
_WHITE 59831
æ½ĭ 121506
.nn 19900
' 6
ĠRecru 82640
ĠactionTypes 67134
äº² 99396
ĠPatent 57990
ASHBOARD 98163
headline 63193
èĳ¡èĲĦçīĻ 112334
Ġháº¹n 140243
ĠHeb 84319
ĠĠĠĠĠĠĠĠĠĠĠĠĠĠĠĠĠĠĠĠĠĠĠĠĠĠĠĠĠĠĠĠĠĠĠĠĠĠĠĠĠĠĠĠĠĠĠĠĠĠĠĠĠĠĠĠĠĠĠĠĠĠĠĠĠĠĠĠĠĠĠĠĠĠĠĠĠĠĠĠĠĠĠĠĠĠĠĠĠĠĠĠĠĠĠ 86766
SequentialGroup 23394
Ġanything 4113
ĠìĥĿê°ģ 128646
Ending 88701
.setLevel 57379
åĽĽä¸ªæĸ¹éĿ¢ 118241
ßª 148970
ARY 8642
Ġinviting 41192
Ġoccasion 13101
ĠÐŁÐ¾ÑįÑĤÐ¾Ð¼Ñĥ 133841
è¾¾ä¸įåĪ° 114152
Wake 90748
{}. 46391
à¸§à¸²à¸Ķ 139801
yh 73801
å¼ºç¡¬ 118802
è¿«åĪĩ 110787
.minLength 95940
Ġlate 3309
.Net 16993
à¸ªà¸¡à¸²à¸£à¹Į 143817
ĠFem 34195
ĠWHETHER 17647
mÃ¤ÃŁig 140448
ĠÐ´ÑĢÑĥÐ³Ð¸Ñħ 130599
<[ 66746
Ġah 22327
.pageSize 61059
(Result 47383
CAS 87516
Ðº 4793
Ø±ÙĪØ³ 129236
Ġciphertext 69789
";čĊčĊ 21579
ìĨ¡ 127105
ĉĠ 3677
[op 88293
×©×Ļ×ĳ 134786
ĠMOT 45847
Ġparanoid 68663
ĠĠĠĠĠĠĠĠĠĠĠĠĠĠĠĠĠĠĠĠĠĠĠĠĠĠĠĠĠ 4597
loggedin 96227
probante 87937
asca 98440
ä¹Łè¶ĬæĿ¥è¶Ĭ 112539
ureau 17169
éĻĦä»¶ 108396
/sys 41836
Ġduplic 26347
/per 43985
]& 62238
Sin 48268
opathic 61109
çĶŁåĳ½åĬĽ 112157
radius 26715
Ġcarousel 52281
Years 54419
å®£è®² 108406
Ġquantify 75398
ÙĩØ¨ 135269
_RGB 24815
ä¹Ĵä¹ĵ 113449
ĠluáºŃn 129748
íĢ¸ 145250
×¨×Ľ×Ļ×Ŀ 126173
Ġstatement 5114
ĠtÃ©lÃ© 42016
Organ 23227
_ICON 36525
degree 41027
orde 52118
æĸ°åħ´äº§ä¸ļ 109480
åĲįä¹ī 107765
ckill 94068
Hal 55941
ãĬļ 150072
.resize 17382
æĬķè¡Į 117899
ĠKrak 88443
_any 37248
minimum 37988
äº§åĵģ 82700
ĠØ§ÙĦÙĤØ±Ø¢ÙĨ 134074
ĠngÄĥn 133776
Ġremodeling 69330
/Area 85341
sin 15940
ĠNag 29062
Ġfizz 86979
ĠìŀĪìĸ´ìĦľ 136633
MSN 79360
blas 49297
_axis 23567
.meta 24888
lis 47203
tracked 58381
Ð»Ð»ÐµÑĢ 139150
ĠBenz 77542
%;" 69617
UserData 39485
Ø§Ø© 125653
.notes 54687
illian 64721
MessageType 82107
uther 25487
åħļç»Ħä¹¦è®° 112647
'Re 49427
ĠWrocÅĤaw 139222
Ġ`, 90190
Ġfrantic 88606
WithTag 43131
@AllArgsConstructor 66885
quiry 17343
unday 6676
(\" 36014
à¸Ħà¸¥à¸´à¸ģ 134781
ĠCÃ¡ 130494
ĠÑģÐ»Ð¾Ð²Ð° 135381
åįĹå±± 110194
Ġcoer 93185
ĠDod 35868
Ġgladly 70850
Ġbabies 23920
ĠWaitFor 37601
"value 63307
Ġsecretive 82999
ìŀª 151016
Ġëĭ¹ìĭł 131502
ĠTOTAL 46962
ĠwiÄĻkszoÅĽÄĩ 143023
Ø¬Ø© 125168
.C 727
embre 22530
Ġconsequences 15917
apeutic 31386
_plan 26564
CancelButton 81921
lyph 9525
Ð»Ñĳ 138408
å®īåħ¨ä¿Ŀéļľ 117110
reat 1222
ê¾Ĳ 147699
.large 89664
->__ 29899
Ð¸ÑĤÑĮÑģÑı 128708
_MC 59714
Ã¬m 126303
Ġhighly 7548
ĉAddress 98090
Ġ×Ķ×¦×ĵ 138085
à¸£à¸¸ 125142
ĠAkron 94793
ÑĤÐ²ÐµÑĢ 126151
Ġarrogance 82743
Servi 137069
ï¦£ 147243
.SwingConstants 85060
.urlopen 62595
ollect 24605
bez 143213
ĉpr 25653
Ġpwm 64551
Ð¼ÐµÐ´Ð¸ÑĨÐ¸Ð½ÑģÐº 136245
ĠHaiti 55190
ĠÐ¿ÑĢÐ¸ÐµÐ¼ 134011
åıĤçħ§ 109037
âļ 123847
à¸Ŀà¸£à¸±à¹Īà¸ĩ 143236
(res 4590
åįĸæİī 117337
Ġaudition 61888
ĠMEM 24478
Ġoperands 54510
_successful 92951
Ġwir 16111
Ð°Ð½Ñģ 126382
à¸µà¸¢à¸ĩ 124858
Ġemerging 23206
éĹ®éģĵ 106116
icopter 87223
ãģªãģģ 133200
_same 33574
ä¹ĭéĻħ 106254
à¦¨ 86548
åµĩ 120977
ks 2787
Ġcartridges 71733
ë½ĳ 144334
ä¸´æĹ¶ 104875
Vehicle 34602
enz 16597
ĠØ§Ø³Øª 93153
ĠØ§ÙĦÙĨÙĩØ§Ø¦ÙĬ 141051
ĠìĨĮê°ľ 142559
æº¯ 101758
ĠIss 15935
Ð¾Ð±ÐµÑģÐ¿ÐµÑĩÐµÐ½ 141061
glich 28494
ungs 28122
ToOne 28190
×§×ķ×ŀ 134012
ĠSik 77349
abay 97186
phalt 35174
Ġfr 1422
çļĦæĪĲéķ¿ 108450
ĠyaÅŁad 141664
.Space 63991
'>"+ 86600
ĉparent 24804
æľīæľº 102354
Ġvote 6910
çĶŁæ´»æĸ¹å¼ı 107142
Ġfie 62305
WHO 77747
åĽŀé¦ĸ 116978
æĬ¥åĳĬæĺ¾ç¤º 116077
ï¥§ 145351
-token 34841
glyphicon 22135
ĠVolume 20265
çĸ¥ 120203
ĠÐ¾Ð±ÑıÐ·Ð°Ð½ 138823
_DU 97153
å¼¸ 122907
>] 53529
ĠSark 78645
\Services 54746
Ġhalted 60095
ĠMulti 17439
_fn 15246
åĩłä¸ªæľĪ 108425
ĠØ§ÙĦØ´ÙĬØ® 131017
è·¯æ¼Ķ 117570
Ġcuisine 35005
Ù¬ 144304
é¼Ļ 122080
ĠpÅĤyn 140916
Ġmicrobes 79627
_SDK 84197
å·¥ä¸ļä¼ģä¸ļ 109983
ç¿Ī 122801
ĠOld 10621
ĠPEM 96734
-defined 38717
Ġscho 77040
(name 3153
.lon 72334
Ġkas 47656
æ³Ħæ¼ı 114529
issional 89580
Ġdurable 26128
Ġparm 59818
Ġprecious 26400
éĩĮ 69249
pector 18997
ÐµÐ½ÑĤÐ° 87731
Ø§ØªÙĩØ§ 130377
sites 54764
ä¸Ģåı£æ°Ķ 111355
å¹¿æĴŃçĶµè§Ĩ 109038
Ġerect 37632
Ġinspirational 56214
umat 45213
ĠwartoÅĽci 135646
ĠÙħÙĨÙĩØ§ 129431
çı« 122572
ĠTables 42152
.setAction 73545
Ġ×Ĳ×ľ×¤×Ļ 139879
çļ±çº¹ 114596
.no 18341
ĠEncode 56562
ìŀĸìķĦìļĶ 142310
Ġhold 3331
æįĲçĮ® 118295
æ¹¿æ¶¦ 116442
ĠtÃªm 98860
MOD 26459
_empty 15124
å¥½åıĭ 105478
Ġunanimously 64078
/dr 48054
ãģĮå¤ļãģı 133623
Ġtuner 90695
,height 38709
à¸Łà¸±à¸Ļ 138851
ĠÐ´ÐµÐ½ÑĮÐ³Ð¸ 131659
Ġattractions 38491
è¿ĩåĪĨ 109966
Ġwenig 69987
/english 71009
=params 57643
åħ±èµ¢ 103398
åıĮåįģä¸Ģ 111666
Ġmanera 43892
ä»ħä¾Ľ 103387
Rachel 83878
%s 12952
è©³ç´° 117625
veillance 60300
Ing 25416
à¤Ĺ 145959
-gradient 42738
otre 51162
prus 49887
ĠTimes 8523
ĠSouthampton 61151
åģľçķĻ 111864
Ġpudding 81427
Ġviagra 19695
Ġ×ľ×Ķ×¢×ĳ×Ļ×¨ 140069
åħ¨åĽ½äººæ°ĳ 117891
æł·æĿ¿ 110756
çĹĺ 101820
Ġtors 94460
ê´Ģë¦¬ 129576
çĶ»éĿ¢ 102650
ĠØ§ÙĦÙħØ³ØªÙĪÙī 139148
aÄŁ 143786
à¸Ļà¸§à¸±à¸ķà¸ģà¸£à¸£à¸¡ 143532
Ġcoinc 22970
ĠPablo 52763
.setSelected 40274
-owned 28699
caught 61208
_Copy 77637
ocz 83895
ĠTask 5430
CSR 70022
.setItem 19401
ä¸ĸçķĮçļĦ 107162
ĠGAM 81811
args 2116
Ġcrops 30565
ĠnIndex 91024
Ġflawless 68516
äº§ä¸ļéĵ¾ 102286
Mac 19552
åĳ¨åħŃ 114414
æĲŃ 100095
ÑįÑĦÑĦ 134784
ĠiÅŁlem 129850
ĠShutterstock 84042
ĠMent 48593
ĉaddr 53183
Ġantioxidants 80015
Ġlange 52287
_rc 30299
ÃĨ 144839
igi 29537
ìĽĿ 149229
ØªØ£Ø³ÙĬØ³ 142879
è«® 113168
redit 10827
åģ´ 116153
ĠBlasio 92393
china 80136
ĠCafÃ© 65671
Ġkiá»ĩn 129065
Eine 87876
_XDECREF 71821
damn 88619
ĠNar 28753
åļ´éĩį 113758
_Result 49596
ÑģÐ°Ð»Ð¾Ð½ 142931
ĠmaxValue 52172
Ġpossession 18721
ĠìŀĪì§Ģ 141231
ĠisVisible 71744
æ±¹ 119323
åĬ¨çī© 101239
arnation 54049
å©µ 120821
.actions 26495
ĠScientists 56016
.Menu 19621
ĠØ§ÙĦØµÙģØŃØ© 139463
_HEL 69235
Ø¬ÙĪ 128655
ĠIndust 17210
ĠSwagger 79631
Ġepub 63949
ĉimg 39162
Ġpharmac 35349
Ġthematic 94768
inos 15215
ĠEsther 83638
Î¡ 145205
Ç¿ 147086
ç´§å¼ł 104432
ðŁıī 148237
ĠTheater 37471
ðŁĵĵ 149196
Ġrealiz 33760
Subject 13019
çŃ¤ 123212
face 1564
ĠPacket 28889
-none 24887
ĠwÃ¼rde 58881
ĠÐ¿ÐµÐ½ 139507
Ġ×Ķ×ŀ×© 124696
Cri 98892
({_ 65011
à¹Ģà¸Ķà¸Ńà¸° 141267
çŃĶåºĶ 106101
íĥ¶ 151069
ãĥ¼ãĤº 125881
Ġexquisite 58608
Ê³ 145781
Ïĩ 89102
ĉGUI 65100
nginx 73561
days 13778
éĿ© 99575
uing 7471
à¸ģà¸Ńà¸ĩ 130637
ĠSQUARE 92282
Ġteens 26202
Victoria 80956
lsru 90655
Ġatrib 52012
(renderer 58172
-Javadoc 49385
iness 1880
ouse 1530
ãĤĤå¤ļãģı 141752
(grammar 78336
ĠLayer 22735
Ġhypothetical 58059
ĠSmithsonian 88189
ĠKaiser 66965
Ġapply 3796
áĴĥ 148126
é¦ŀ 123553
çĸĹæķĪ 110993
ðŁı¾ 145639
Ġextremist 55782
(errorMessage 70130
imientos 44962
çĮĽçĥĪ 116672
Ø³ÙĪÙģ 138735
ĠPractical 65636
reno 54883
ĠPer 3616
æ²± 119956
ĠAlex 8515
ç£ķ 111897
StringLength 44421
Ġ=~ 20495
ãģĻãģĲãģ« 132307
ðŁıĤ 147119
_dem 69403
æ¡Ĩæŀ¶ 102724
razione 63031
å¯¹ä»ĺ 108358
design 24852
ĠisFirst 88521
åħļæĶ¯éĥ¨ 102419
ÿ 187
Ġtua 63884
ĉsys 41709
"As 47140
â½Ĳ 150218
éħ´ 123327
ATOM 77932
StartTime 40203
inesis 82789
VMLINUX 49511
usra 89444
Ġ"> 28957
Ġbedtime 88507
Ġepoch 16342
ĠkÃªnh 142770
Ġuserid 32270
Ġbubbles 43683
ĠTHEM 73703
Ø³Ø¨ÙĤ 133333
ĠBOOLEAN 59393
à¹Ģà¸ŀà¸·à¹Īà¸Ńà¸Ļ 126874
Ġcontexto 76743
'){ 42455
.DropDownItems 88187
achat 96164
itant 50944
.hash 15101
ë§Ľ 144017
ĠHands 42296
ĠSega 79849
>d 71150
Ġfaction 36380
(JNIEnv 64888
.setPreferredSize 69783
reserve 56985
Ġfunct 41051
rieben 73461
ï¸ĸ 151235
olor 789
ä»»èģĮ 106948
ĠPoz 78985
Ġdance 15254
Ġinvaders 90221
GEN 11085
_snd 88518
è¾ĥéĩı 117037
starting 39289
ëºį 147945
replaceAll 55860
Ġphotographer 28767
Ġstudied 19476
%@ 84120
/of 96745
gomery 38230
ĠMajesty 66244
ĠÃ§ekil 140033
ĠÐ¢Ðµ 130833
äºĳåįĹçľģ 109258
ãİĸ 147161
à¸¥à¸Ń 131839
Ġpackage 6328
ives 1886
ominator 30206
Common 10839
ãħĪ 145697
ðĿĵĬ 149417
ĠBIND 91370
-cancel 85003
ĠConcurrent 42704
Ġmis 5786
Ġstripslashes 63223
.ID 9910
ĠÄĲiá»ĩn 135601
pod 39073
ìĥµ 144406
@", 18384
ĠGuru 61979
ĠYellow 25462
>);Ċ 42013
ä¸Ńåħ³ 114179
_foot 75759
TriState 88195
ĠWit 71859
ĠLuk 54657
ĠgÃ¼ndem 140071
Ġsubstant 10913
_CONTROLLER 63995
-initial 47967
_GU 84513
ĠHenderson 44577
ĠShib 95337
Ġxlim 93669
ServletContext 78701
ĠìŀĪëĭ¤ëĬĶ 135511
ĠMapping 38446
jec 73201
.setAttribute 13094
(book 33130
ĠCoil 67665
Ġseu 20009
Ø¨ÙĪÙĨ 134959
ĠsÃ©lection 70032
enguins 55358
islation 58221
ighton 87773
.addTab 98703
Swift 55336
ĠFilename 49811
.easing 90379
Ġnug 81780
lad 18107
Ġboard 4479
é£¯ 103373
Ġeso 43741
Ġmer 4704
.asarray 38078
pike 64446
Ġleftovers 92167
ĠAnimal 21292
ãģĦãģĳ 131033
guÃ© 136418
ĠMid 13699
posting 64564
çľĭä¸įåĪ° 108057
Ġblackjack 57262
AYER 14765
äı 101861
Ġlater 2937
ĠØ¨ÙĦØ¯ 132428
ç§īæī¿ 107391
ĠFederation 27232
Ġpast 3267
Signup 56246
ENDER 43604
_CLOCK 41296
ĠfunÃ§Ã£o 62753
åĨĴçĿĢ 118008
ĠØ§ÙĦÙħØ®ØªÙĦÙģØ© 136973
éªĩ 116291
Ġinventor 70901
êª® 150843
ĠConway 59474
ĉanimation 94770
Ð¸Ð·Ð°ÑĨÐ¸Ñı 139500
elligent 20509
è´¨éĩıå®īåħ¨ 114069
_blocks 25201
_mini 84821
Ġdisabilities 35701
Ġevidently 66070
/', 14351
Ġotro 38092
Ġcrus 61718
ĠFarr 73906
_preds 65983
ĠAsset 22605
ĠThÃłnh 129932
ĠWar 5004
Ġerste 61217
èĵ¿ 121377
ÙĤÙĪÙĬ 136025
Ġkenn 74261
ĠØ§ÙĦÙĥØªØ§Ø¨ 134145
è¶´åľ¨ 117232
Ġperpetrators 65346
Transition 21768
Featured 51943
å¼Ĥè®® 111380
Version 5637
.fire 22626
SEQUENTIAL 27038
à¸ģà¸²à¸£à¸Ĺà¸³à¸ĩà¸²à¸Ļ 133782
ãģ®ä¸Ń 125732
ê»ĳ 145248
_IOC 97001
ðĿĹ¥ 147960
éĵĦ 120401
ðĿĲł 148443
ĠMacedonia 76409
ä· 150814
çıĻ 120284
Ġresolved 19673
())) 10131
Ġwoman 5220
Ø¥ØµØ§Ø¨Ø© 135221
Ûĭ 148520
_TOGGLE 79755
-nine 85603
ĠSavage 52936
.Brand 87097
è¡¨è¿° 112926
holes 74690
icontrol 77006
_pll 98812
weis 73869
æ³ľ 122353
ë¥ľ 144585
Ġlinking 30699
gars 63402
æĸ°èģŀ 111716
ĠPerf 71448
Ġacum 68093
romatic 98766
à¹Ģà¸ģà¸¡ 126387
à¹ģà¸ľ 125928
çŃ¹å»º 116777
Ò® 146397
odge 15542
Ġfounder 18996
Ġlargely 13771
Ġmerg 18463
Ġlongitud 48604
Ġsubstit 31334
Ġ×ł×Ľ×ķ×Ł 131348
mers 22780
ĠëĮĢíĨµëł¹ 136774
Ġtalented 23074
ĠNodeType 82749
sterol 32182
Ġconstructed 20346
-facing 63306
iomanip 59623
ĠSampling 95309
%">< 75922
(pp 43952
Ġmalt 54656
<usize 90244
lux 62859
ĠSly 90736
_ele 61365
ãĤĴä½ľãĤĭ 137348
ãĤĴè¡ĮãģĦ 138742
ĠPurple 40389
Ġunknown 9788
Mot 59932
.bo 61962
è·ª 107296
Normals 92701
Theme 12594
oodle 30607
åı¯è§ģ 101479
']))čĊ 67293
.center 13423
uet 13807
ĠWow 45717
/home 18215
Ġdependency 24036
âĨ¾ 148176
æ¾¼ 123586
ëĥĶ 146320
Ġspiel 78152
ĠÐ´ÐµÐ»Ð° 129691
æĽĿåħī 104740
aryawan 75627
Ġsulf 39669
.Car 73587
dep 14891
ĠOutdoor 32682
Ġsubtotal 90381
Ġrespective 19511
çłĶåıĳæĬķåħ¥ 118499
ĠRDF 68399
Ġtribes 38403
_merged 90702
Ġdivisible 74916
Repair 98386
KS 40449
Ġalerted 66669
\API 94162
Ġswingers 54026
(suite 89516
ortality 74952
ĠkhoÃ¡ 131821
cheduled 26644
ĠÐĿÐ¾Ð²Ð¾ 130922
JesteÅĽ 141310
TEGR 68003
ĠØ§ÙĦØ¹Ø³Ùĥ 140420
.ACTION 28934
?;Ċ 37445
quences 43945
ĠPle 32440
ĠDeclarations 88275
ĽĦ 74209
Ġnutrit 68614
Ġguise 83063
à¹Ģà¸Ľà¸´à¸Ķà¸ķà¸±à¸§ 135827
Ġsembl 79564
è¾Ĺ 103874
Ġscraps 91785
æ·¡ 99773
Ġ×Ķ×Ĳ×¨ 132482
_notifications 67546
Ġ.* 47409
Ø«ÙĪØ± 132695
ĠAttributeSet 57440
TOTYPE 98855
_alias 35947
×Ĺ×ľ×Ļ×£ 138000
è¼ĥ 102909
ð¬¬¹ 122647
ĠNewtown 91829
[sizeof 93756
.activ 57490
æĤ¨åĲĮæĦı 116601
Ġfunded 23906
Ġist 5999
Ġscrollbar 79655
Ġsiendo 81266
Ġtinder 89165
é¥±æ»¡ 111055
ð¬¶ł 123642
@yahoo 53633
èĢĥ 77598
ĉms 47691
ĠÐ´Ð¸Ð°Ð³Ð½Ð¾ÑģÑĤ 143757
Ġtroubles 34565
å¹´è¼ķ 113557
ADB 94373
ìī½ 143344
ĠtartÄ±ÅŁ 142124
mÄ±ÅŁtÄ± 132862
furt 38186
à²² 150440
æĺ¯è¦ģ 105306
â¸Ŀ 146083
Ġdesigners 25812
Ġprostituerade 42723
ifndef 56919
zÅĳ 85727
ÑĤÐµÐ¼Ð¿ÐµÑĢÐ°ÑĤÑĥÑĢ 135180
ì¯© 149791
atches 9118
à¸Ļà¹īà¸Ńà¸¢ 128898
å¤§çĲĨ 103683
æĪ² 103402
.RESET 97452
(iParam 62879
Ġvg 84530
ilon 16917
-modules 61079
×¢×Ļ×ª 127315
Ġfats 49027
Fold 75536
ĠAPK 62486
åĲīæŀĹçľģ 110904
-down 14875
Ġcrossings 86099
font 4026
ĠTraditional 45460
Indexed 69941
BOARD 29777
Ġscreams 60008
MER 44268
ifferences 58326
ĠinformaciÃ³n 34515
(balance 90621
åİĮ 101738
Ġ×ľ×¤×ª×ķ×Ĺ 143648
ð«Ħ¸ 123660
éºĴéºŁ 113981
ĠAgain 13759
ĠĠĠĠĉ 7782
-ul 64970
Price 6972
ribbon 54580
ĠEVER 73666
Ġjan 32862
ĠVanderbilt 83026
Ġpuppet 49448
_SELECTED 59340
Ø´Ø¨ 134365
:return 66302
ase 519
PreparedStatement 45405
$( 8525
mpjes 74554
Ð´ÐµÑĢÐ¶ 125177
è°² 121525
/include 26393
_UNIQUE 90330
.booking 91313
ffic 20615
ë³Ģ 126667
ï°Ļ 151202
ï»Ĳ 145096
ĠGallup 79801
ĠHTTPS 61044
')[ 13285
SM 9501
Ġshut 9311
.bam 71804
Ġsmuggling 72934
_logical 86484
çľ¼ä¸ĭ 111027
Ġteng 41149
åĮĸå¦Ĩåĵģ 107275
ĠÃľlke 140320
åıĪæľī 105320
çī¹èī²ç¤¾ä¼ļ 108826
ĠâĤ¹ 89791
ACHER 98136
ceil 22058
Ġverr 71467
Authors 57890
æ¦ľæł· 109368
Ġverts 59414
Ui 23710
_Line 59100
ãģ¡ãĤĩãģĨãģ© 143865
ĠApprec 92821
Ġdanced 83752
ìĨİ 147453
ï½Ł 150149
åĪĬçĻ» 111324
ĠNewsp 60003
Ġye 19478
ÑĢÐ¸Ð½ 134105
endas 41507
çĹħæĥħ 106141
detector 91544
à¸Ħà¸§ 123935
ĠHabitat 98588
ĠzobaczyÄĩ 141612
áĢĴ 148416
Ġseksi 61782
×¤×¢×Ļ×ľ 125795
.defer 60043
aves 4693
à¸·à¹Īà¸Ńà¸ĩ 124212
.Popup 72564
ØµÙĨØ¯ÙĪÙĤ 137563
×¨×ķ×ĵ 138192
Ø³Ø¦ 138772
ĠMSE 94599
.client 6581
Composite 41685
Ġbilder 33700
ĠBrooke 78461
çĶµè´¹ 116798
pired 11724
spotify 87388
æ¸² 103770
Ġfluids 55306
×ķ×ľ×ķ×Ĵ×Ļ 136498
_response 9655
æīŃçŁ© 116358
æį¢æĪĲ 113552
raid 13831
ä¹ĭè·¯ 102502
é²º 123566
ĠHorton 94595
Ġtattoos 53642
à½ĵ 149543
_categoria 78736
èĿ¾ 121610
ĠPron 86915
Ġappointments 36156
Ġinh 59437
ĠRac 55706
ĠPlaying 39451
ĠKun 42783
Ġproportions 48792
Æ°á»Ŀi 85532
ä¸ľæĸ¹ 102132
ĠTrek 30471
æľĢæĸ°çļĦ 108324
ØµÙĦØ§Ø© 133180
arguments 16370
ĠNottingham 66559
sensor 29511
"];ĊĊ 31797
"/>.Ċ 61166
ACHINE 41234
UMB 71567
ï¼Ĩ 132243
ð¬ŃĽ 123201
.MockMvc 71008
ĠNov 4620
archs 86050
Ġexplanatory 92466
.getcwd 46474
Ð´Ð¶ 125852
yy 4807
fil 12441
ĠLutheran 81981
ĠWrong 40756
\Validation 69450
åĽºä½ĵ 115320
riminator 94124
×ŀ×ĸ 125581
uforia 69754
ĠKsi 143833
ĉDate 48730
ĠchÃ¡u 136291
Ú¹ 149311
forum 22585
endsWith 84474
Ġdojo 84859
ĠPodesta 87128
åĪĨéĴŁå·¦åı³ 118330
áĽŁ 149580
seys 36423
PWD 59476
Ġideas 6708
åģıåģı 111702
son 930
ĠMong 43439
'app 52049
Ġlime 41719
åĤ§ 120989
Ġhug 29784
æ±¤ 102022
Ġattrs 16204
Ġà¹ģà¸ķà¹Īà¸ģà¹ĩ 139599
ĠÐ·Ð°ÑıÐ²Ðº 143734
Ġ'=', 25370
TableRow 38558
Ġring 10058
.Binding 36022
æĶ¹è£ħ 110827
ÑĢÐ¾Ð± 126083
Ġbothers 81354
iska 48560
ãģ§ãģĤãĤįãģĨ 142401
bons 46520
à¸Ħà¸§à¸²à¸¡à¸Ħà¸´à¸Ķà¹Ģà¸«à¹ĩà¸Ļ 136150
åķµ 120673
broker 69309
irms 14404
.setViewport 88951
ĠespecÃŃf 77920
ë·Ķ 144687
ãĥģãĥ£ãĥ³ 135961
à¸¡à¸²à¸ģà¸ģà¸§à¹Īà¸² 130748
Ã¼st 138417
çĶ»çĶ» 113382
Ġinsured 52042
Ġmobil 28805
cek 45700
Ġ×ŀ×ķ×ľ 130385
ĠTigers 39716
YELLOW 97029
_sol 53668
Wait 14190
ĠThese 4220
("** 91389
.dp 51206
à¸ĸà¸¸à¸ĩ 141880
ĠCHO 82353
èĩĨ 121921
Ġtoilet 26214
_L 2351
-item 6404
åľ¨æł¡ 108328
ĠFasc 69607
Ġbanks 13959
à¹Ģà¸Ľà¸¥à¸µà¹Īà¸¢ 126740
Ġfinder 43730
Ġhotspot 79210
íĭ 124193
eb 3065
_App 36117
Ġbunch 15493
/dir 88226
HTMLElement 63857
åĬ¨çĶ» 106030
ä¸ºæĬĵæīĭ 112982
åĪĹä¸º 113507
Ġvandalism 88852
Ġ×©×ľ×Ļ 128554
(CONT 98747
ì¥¬ 144854
oused 36488
ĠImprovement 52651
.Sample 76266
æłĩéħį 116679
çļĦçĽ®çļĦ 104975
ĠDELETE 17197
-Length 52493
_serv 44053
ç³»åĪĹ 100187
Ġfail 3690
ĠLiber 94297
ĠÐºÐ°ÑĤ 143890
Ø¹ÙĤÙĪØ¨Ø§Øª 143052
ÐºÐ»ÑİÑĩÐµÐ½Ð¸Ñı 139883
ĠAccident 75504
Ġplacements 88393
ĠÃ¼ 10489
Ġ×ĳ×Ĳ×¨×Ķ 140698
ĉService 91619
ĠUnsupportedOperationException 42978
Ġgunshot 73781
<v 39297
ĠÐ³Ð¾Ð´Ñĥ 129257
ĠEven 7418
_point 6085
ĉcomment 96268
ĠinputFile 76208
READ 9560
æĹ¥å¸¸ 101254
ĠGas 20854
ĠGetById 92085
ĠcontrÃ´le 136577
ĠBrend 38964
-fat 63254
.parseColor 70940
.ns 52328
amient 66328
Ã¼yÃ¼ 142860
Ġnegativity 92695
Ġretorna 71675
ĠEisen 54493
)value 46251
.AddListener 80035
ĠìĹ¬ëŁ¬ë¶Ħ 134637
çĢıè¦½åĻ¨ 109905
æ¯«åįĩ 117033
[selected 88906
Ġ×ľ×¦×ķ×¨×ļ 137340
å®Ŀçİī 117148
SIDE 73673
åİ»éĻ¤ 108569
éĶº 123349
æ±¡æ°´å¤ĦçĲĨ 107812
otics 49903
Ġnear 3143
ĠappendString 96340
à¸Ńà¸¢à¸¹à¹Īà¹ĥà¸Ļ 129444
ð«Ń¢ 122190
ÙĬØ±Ø© 124872
ãĢĤâĢĿĊĊ 78900
ĠletterSpacing 87999
ĠTLS 41654
Ġbillionaire 46694
ĠÐ¾Ð±Ñĭ 135925
Ġìī½ 142068
Ġchromat 97184
éŃı 104450
Ġpromot 18408
ðĿĺ¯ 147431
ĠGareth 87047
Ġzero 7168
ĠÄĳá»ĭch 140787
ØªØ§ 129756
Freq 55096
ìĭ² 151441
×©×ķ×Ŀ 129000
`( 81556
spots 67010
ìłĵ 145100
ìĺ 34992
Josh 50744
Tue 61048
ãģįãģ¾ãģĻ 126752
]))čĊ 48898
éĿ¢èĨľ 109618
ĠBooker 64995
Ð¾Ð±ÑĭÑĤÐ¸ 96754
Ġspiked 92242
(instr 78923
",[ 83498
ĠVoyage 95272
ëºĮ 146944
ç¹¼çºĮ 109365
è·Ĩ 120923
èĸĦ 101264
achu 64918
.cells 50492
ðŁ¤« 147061
PLY 24834
fk 41718
Bits 19920
_greater 97994
Ġportion 13348
é¸« 120359
æ£¨ 123104
Ġmum 38859
ĠktÃ³rzy 130404
ĠBinary 17718
.randn 63006
utr 79281
ĠJiang 60822
ĠCav 51066
Ġdope 91312
Òķ 150086
Ġunzip 75913
Ġdislike 47869
accuracy 32729
Ï´ 148283
âļª 145597
.hover 78423
Ġlisten 8844
erspective 85091
×¨×Ļ 124390
æ·±åİļ 103524
Ġpostgres 59826
_ag 20587
åĮ»èį¯ 101356
izi 33235
Ġsexually 26583
.Matchers 78558
åĬłæ²¹ 102839
Ġnous 16890
æĸ°è½¦ 107117
Ġcivilians 28436
Ġmaxlen 75448
.FloatTensor 89498
(sv 96138
çĥŃæĥħ 102379
ĠsetEmail 53320
ĠìľĦ 45710
Ø±Ø¯ 128793
-ui 8723
ĠSelect 8427
å¿½çķ¥ 103325
æııåĨĻ 109478
Ġapprec 9790
ximo 38884
×Ĳ×Ĵ 126589
ä»Ĭå¹´ä»¥æĿ¥ 107325
ĠTipo 45020
NavigatorMove 91003
ÙĤÙĪØ§Ø¹Ø¯ 138537
ĠReceiver 50952
è¸¶ 123541
Ġdoctrines 82158
Ã¼m 48521
.utc 45397
(Android 77376
ĠLIKE 20529
DFS 62266
forums 54059
oved 4941
Ġply 38573
.entities 25543
/bind 84480
ĠBÃł 132934
-four 41017
á´Ģ 146368
×ŀ×¡×ķ×Ĵ×ľ 141899
ĠczÄĻsto 131830
éĤ£æĹ¶ 105334
ĠY 809
Brad 61781
ĠÑħÐ¾ÑĩÑĥ 143612
ĠÅŀubat 136041
ĠCastro 46524
Ïĸ 147513
ĶåĽŀ 25011
ä½İè°ĥ 109479
VectorXd 81205
æĽ¿æį¢ 113952
ãĤĵãģ§ãģĻãģĳãģ© 131990
ĠInvocation 78493
Ġelectricity 17728
steller 72511
ALE 24896
èĩ´ãģĹãģ¾ãģĻ 142798
ĠJung 49332
inqu 52888
Ġcurriculum 29576
osity 22053
ç½®èº« 114685
çĿ£å¯¼ 107125
_fu 36467
arious 53271
/socket 55480
.getString 7109
.Term 80671
è·Ŀ 99946
ÑĤÐµÐ» 125999
ĉprintln 81168
Ġcompleted 8145
/li 88381
arged 92249
ï²ľ 151222
Ġìī½ê²Į 142069
íĻį 136286
ĠgegenÃ¼ber 139115
ĠRoss 20482
etcode 83145
ĠGott 68009
Ø·ÙģØ§ÙĦ 127658
Ġfoll 51406
Ġanalysts 30399
ĠRei 83141
ĠvalidationResult 96533
atÃ³ 44028
ĠanÃ¡l 71290
ĠinitData 68733
dÃ¼ 126427
ĠFurn 64472
Ġhashlib 54495
Ġpool 7314
ĠRequests 50882
è´¯ 100116
Ġeyebrow 83316
.ng 42907
Ð¼Ð°Ð³ 127004
ĠSOS 81203
AVED 83608
uede 63667
Ġà¸Ĺà¸µà¹Ī 128477
Ġoz 24596
å¢ħ 102812
ĠFir 79247
Ġattempts 13553
Ġdisadv 29847
Ġpremiums 47507
çľŁç©º 110797
BOOL 10395
èĥ½å¤Ł 100006
ĠParse 14775
aidu 35801
ĠWend 41268
Ġpcm 68647
ĠApproach 53084
andel 37121
ä¸Ĭãģ® 134737
Ġsuicides 83949
:params 95011
ĠCynthia 74571
ĠÐ¸Ñģ 125109
ĠsetDescription 68325
á¸Į 148895
paragraph 27727
çĸĹ 99527
/New 81249
æ±§ 122239
ĠwzglÄĻdu 137103
ĠNights 63543
ltk 43671
ĠNursery 92185
ĠOST 93301
åĽŀèĲ½ 108389
IDGE 54156
ĠNapoli 85676
Ġcaract 56605
ÐµÐ½Ñĭ 78586
ĠSpecies 50467
"H 45539
terms 18347
Ġlign 71600
ìįħ 148079
ites 3611
çĸł 119937
ĠEspaÃ± 88982
ymb 3356
âĹª 149670
ã»¬ 123421
(Chat 65038
Ġplaya 97440
""")Ċ 95323
fÃ¤llt 135475
ĠÐ¿Ð»Ð°ÑĤÐµÐ¶ 141706
Þ 154
piler 28055
trÃ¤ 140463
à¨ľ 147273
-lived 61854
Ø¨Ø® 138240
åħ¬åı¸ç«łç¨ĭ 118227
/"+ 33778
Ġchoices 11454
Ġpunishing 74886
ĠEnterprises 65956
Ġpessoas 45962
/json 8931
çĥĤ 102581
æīĢåľ¨ 101393
getFile 76595
askets 48140
Rated 34643
],ĊĊ 49088
grounds 62111
ĠBEN 82834
onymous 9757
ĠBrand 16430
åĵļ 120131
ħ§ 91771
Ġzeal 68679
ä¸įçĽ¸ä¿¡ 112465
ĉĉĊ 2394
Ġpotent 35775
CppGeneric 53178
ãĥ¶ 127590
_definitions 84881
ç¾° 121666
(Direction 81740
åĪĿå§ĭ 113188
gal 16470
.har 86455
cretion 88690
èĩ³ä¸Ĭ 110724
â¨į 150734
Ðķ 55091
è®¸å¤ļäºº 108264
ĠAmnesty 77696
Ġcyber 20847
Ġrepl 5791
.strict 40699
Ġsáº£n 85636
Resources 11277
Ġyytype 86396
Â´t 96865
rats 62937
ĠØ§ÙĦÙħØ¬ØªÙħØ¹ 130555
Tahoma 32928
_DIS 12198
ãĦį 151601
nÄ±z 125288
å½ĵåľ° 100198
æľĭåıĭä»¬ 102644
ĠÙĤØ§Ø¦ 142760
ĠTill 39688
Ġê·¸ëŁ°ëį° 130790
Ġpower 2355
Ġnoodles 60160
BL 9389
ç½´ 121432
ĠJasmine 81352
.epam 81826
arrow 6044
à¸ªà¸¡à¸²à¸£à¹Įà¸Ĺà¹Ĥà¸Ł 143819
ĠKY 49479
Ġzipfile 86952
stu 60682
ĠÐ½Ð°ÑģÐµÐ» 140877
Ġuphold 63423
>$ 23586
Ġbitch 39430
ĠSNMP 88133
âĢľAnd 67832
alars 39977
æį§ 102894
ð«ļ 101881
åļļ 123682
ĠtrÆ°á»Łng 129528
Ġwritable 45905
ĠKiss 43630
ĠMontana 36005
Environment 12723
é£İæ³¢ 117018
ĠLedger 70306
ARENT 28155
ÅĽwiad 130019
çĽ¸åħ³æĸ°éĹ» 111555
ĠMichel 44406
rics 6198
avour 25998
$list 55228
qx 88735
ALS 46737
Ġvulner 13521
é¬· 123716
wave 30398
Ġredevelopment 87639
æľįåĬ¡ä¸ļ 105823
ç¸¾ 119215
Ġpropaganda 29517
ï¯® 151193
@Json 82041
$date 56362
ĠbÃ¡sico 140807
Ġdrafts 63592
éĢ£çºĮ 118777
Ġprinciple 17508
.tags 32508
×ĵ×ĳ×§ 140942
FAQ 54932
-buttons 61667
.Maybe 98212
åħ¨éĥ¨ 85248
é½Ĳ 100046
Ġmusical 17795
nex 73226
veh 15200
frage 83301
å°±è§īå¾Ĺ 115119
voluciÃ³n 140012
ç¬¯ 122836
Ġchá»ĳng 129455
Ġiod 78987
Ġrepreh 77837
.Toolkit 52542
èĢĥæŁ¥ 117246
Ø®ÙĦ 124429
REW 93152
ç³ 99264
ĠĠĠĠĠĠĠĠĠĠĠĠĠĠĠĠĠĠĠĠĠĠĠĠĠĠĠĠĠĠĠĠĠĠĠĠĠĠĠĠĠĠĠĠĠĠĠĠ 18749
âĭ² 150663
reece 89031
Ð½Ð°ÑĨÐ¸Ð¾Ð½Ð° 138745
è¿° 41932
Ġconfigurable 43394
/yyyy 42651
Ġ"== 98651
âŁª 147185
hlen 70667
Ġqa 88496
é¢Ħè®¡ 102042
Ã©poque 140254
Ġavoidance 64311
endTime 49688
ĠdatePicker 92151
akhir 64858
ëĪĶ 144442
',( 64059
âĺĨ 46138
ates 973
ĠMercer 80011
Elem 25586
åĪĨéĶĢ 114700
cooldown 90396
isty 87523
ðłħ 122866
Ġsurrendered 69944
æĪĲéķ¿ä¸º 114050
ĠMILF 73298
Pas 70911
Zip 31047
ãģĻãĤĭãģ®ãģĮ 137625
æĳ´ 123299
Ġlocal 2205
åĨ·éĵ¾çī©æµģ 115549
ĠRoad 9536
èĢĮåİ» 109472
ĠOf 4940
package 1722
äº¤éĻħ 116748
Label 2476
acyj 95553
ĠLeonardo 65386
Bitte 86819
Ġhay 17669
ALIGN 65189
ĠAlias 58040
]))ĊĊ 36928
Ġ:= 1669
Ġexterior 27263
(Dictionary 80345
,self 21554
.localPosition 50329
ah 1466
Ġpornstar 72183
(userData 85795
(norm 71220
ĠthÆ° 129101
ĠMediterr 36437
ç²¾å¿ĥ 105191
,rp 89010
brands 69194
×ĵ×¢×Ķ 137891
(TEXT 46356
toolStrip 65539
ãĤŃãĥ£ãĥ© 142004
é²Ń 123563
ĠEMAIL 51708
ĠMelanie 84250
Ġforc 51742
Ġhatte 42668
ä¸ªå¤ļæľĪ 114178
(red 36001
Ġparliament 21130
Met 34673
æŁ¿ 103847
.from 6387
Stories 92431
å¤±æİ§ 116455
çļĦå¸¦é¢Ĩä¸ĭ 114026
=target 96778
Ġ×ľ×Ķ×ĳ×Ļ×Ł 134460
ĠìĿ´ëŁ¬íķľ 131367
Ġthrough 1526
leton 15616
ãģĵãģ¨ãģĮãģĤãĤĬãģ¾ãģĻ 139184
ä¸»åľº 107760
Ġ----------- 92586
ÐµÐ½Ð½Ð¾Ð³Ð¾ 133479
Ġpastoral 89271
Ġmailing 32759
_f 761
ä¸´æ¸¯ 118426
ĠUruguay 72290
Ġ[&]( 61338
Ġyeah 21639
/legal 47036
.logical 72416
paralle 64761
ĠKunden 61291
ourses 16349
.dimension 76043
GRID 72909
×ĺ×ĳ×Ĺ 134864
.Timeout 63977
×¨×¢×Ļ×ķ×ł×ķ×ª 143240
à¸ªà¸¡à¸²à¸£à¹Įà¸Ĺ 143818
ĠChecks 24843
.CONFIG 88466
(shift 90278
employees 34539
GLOBALS 19606
ĠASSERT 12208
åįİå¤ı 106740
ĠtabBar 76781
åºķæ°Ķ 116279
ĠÐ¼Ð°ÑĤÑĩ 138357
_nc 52382
Ġcorridor 45879
']: 43420
âľİ 145381
-used 68521
ÐµÑĤÑģÑı 49719
ç§ĳæĬĢåĽŃ 117239
è§Ħå¾ĭ 104466
ĠPKK 97958
æĤĦçĦ¶ 112658
both 21028
Ġpublishing 22913
orre 92433
Ġìĸ´ëĸ» 130107
CppGuid 86451
ĠKabul 86545
ĠRw 55294
uner 47037
_pow 56183
æ´ĭæ´ĭ 115993
Ġamsterdam 55939
Ġlug 53410
.CASCADE 43170
ëª© 87608
ĠA 362
ĠEditorGUILayout 52822
Ġjoin 5138
>-- 82157
-deals 67548
essian 74329
ECT 5935
.Clock 79248
jang 37527
Ð¸Ð»ÑģÑı 130143
.car 26890
mtree 70422
×Ļ×Ķ×Ł 136274
æķ°çĽ® 114940
.lookup 39937
models 6507
×ª×ķ×Ľ 125813
åĳ¨ä¸Ģ 112454
ÙĦØ§ÙĨ 130376
è¾ĵåįµç®¡ 118309
Ġbartender 90405
Ġledger 46933
ĠOlder 53925
Watch 14247
.rd 97208
ð¬´Ĭ 123506
ĉĉĉĉĉčĊ 32545
iltro 46120
ight 491
ĠSIP 65441
âľĲ 146370
setting 15320
#================================================================ 72004
Despite 19810
(SC 59461
åĴĮ 33108
conf 6135
ĠIvy 56879
ULATION 55842
Ġradial 56836
@login 40646
_GO 39622
Ø£Ø´ÙĬ 140535
Ġautobiography 90437
æīįåıĳçİ° 109785
tek 42713
éĢĤåº¦ 111373
ðŁıĪ 149332
ĠWol 29543
ĠaldÄ±ÄŁÄ± 136390
áĳķ 145319
credit 23311
ĠDone 27357
ĉRoute 47501
Ġdisse 32900
åĸ¬ 119019
.crm 82644
Ġchoosing 18774
LiveData 40357
ãĥķãĤ£ 129537
à¸§à¸´à¹Ģà¸Ħà¸£à¸²à¸° 137166
Ġrent 8016
.ActionEvent 20531
ĠÑĩÐ°ÑīÐµ 141648
/System 91274
ĠgÃ¥r 70757
dependence 90646
ng 968
éŁĤ 123774
ĠiPhones 72065
.binary 60613
ĠÙģÙĥØ±Ø© 142139
à¸ĺà¸£à¸£à¸¡à¸Ĭà¸²à¸ķà¸´ 132434
.png 3508
ä¹Łä¸įä¼ļ 104871
aÄŁÄ± 125494
ðŁĮĪ 145354
Ġæĸ¹æ³ķ 81454
à¹Ģà¸ŀà¸£à¸²à¸° 129674
ĠchÆ°Æ¡ng 129784
_HEAD 27990
ðŁı¸ 148897
|string 36050
.raw 18152
AuthService 90466
è¶³å¤ŁçļĦ 103170
yne 81708
ä¸»ç®¡ 102667
å±ĢéĻĲäºİ 118843
ëŃ¥ 148643
Ġsprawling 70892
ĠRTE 81855
å°ıå¿ĥç¿¼ 114889
ĠWholesale 55416
>(). 10483
å¥½ 52801
Ġvraiment 58919
Ġinclined 42031
Attr 13371
ra 956
à¸Ĺà¸³à¹Ħà¸Ķà¹ī 136750
-pr 26650
Method 3523
Ø´Ø§Ø´Ø© 140044
ãģ£ãģ 125388
Terrain 85020
å¼Ģå¤´ 111749
æĭĽåķĨ 102318
_agg 83534
ĠRunner 44946
Ġinverse 27949
prof 21826
Ġwallets 53308
ĠyÃ¶net 125981
è§£å¼Ģ 117647
èłĵ 122026
ð¬ºĪ 123532
ako 28786
ometimes 12693
Ġjuvenile 47670
Ġsandbox 42754
×ĸ×Ľ×Ķ 139080
à¹ģà¸Ľà¸¥ 126097
ĠArrow 33712
ĠaÄŁrÄ± 140757
Supply 51296
bens 55874
ëµĲ 145726
acoes 60126
_note 27207
ãģ¿ãģª 142514
ĠKathy 64198
ĠÑĤÐ¾Ð¼Ñĥ 136392
terdam 50129
ĠAverage 23565
Ġintimidate 89688
ateway 12043
ĠLD 28877
äººç¤¾å±Ģ 118827
landÄ± 131181
ĠNes 91408
Discuss 96554
ðĿĸĳ 148378
Ġperu 91859
è¿ľ 99427
_STATES 87437
æķµ 115482
ĠcurrentDate 59813
/fw 60193
Ġ=>' 49807
ĠJoi 41168
ĠDiÄŁer 138556
Ġharsh 24939
Ġspecialties 93336
×§×ĺ 125521
â¸ľ 146979
ä¿Ŀç½Ĺ 107211
-che 36740
æĺ¼å¤ľ 118349
Ġtráº£ 129477
Ġassure 34915
(Locale 65759
/single 96562
ultipartFile 63300
Pager 22640
_PO 14169
ä»įåľ¨ 107677
]-' 81299
ĠÐ¿Ð°ÑĢ 62680
ĠLori 81085
ĠìŀĪëĭ¤ 90686
Ġindirect 24614
EQ 54007
Ġrainbow 47613
docs 14120
Ġíļ¨ 141540
ëĵ¤ìĿĦ 129125
iod 3127
_HOME 28466
Consulta 72544
Îº 67337
Ġtabla 40546
ØªØ·ÙĪØ± 132538
ĉĉĉĠĠĠĠĉ 98738
Ġdistinction 29196
Ġsimultaneously 24303
ĠØ²ÙĬ 134777
ĠTIMES 86930
Ġinfamous 38533
:@"% 29752
'){čĊ 48271
Ġfing 38727
(require 23482
.Tick 66858
ĠAFP 26648
Ġgps 45567
ĠÃ¡ 18698
æķ°æį®åĪĨæŀĲ 111540
special 15144
textAlign 81175
Ġaccommodation 27278
.VisibleIndex 91683
tahun 65996
Ġmint 28337
ĠMus 5331
Ġhyperlink 93580
(filepath 34793
Ð¿Ð°Ð» 131637
Ġimplies 23945
ë³¼ 130454
Ġpe 1051
_each 32046
Çµ 147443
Ġexistence 13885
æľīæľºç»ĵåĲĪ 116239
ìĭłìļ© 141970
ĠgÆ°Æ¡ng 139227
ĠEj 52758
ì£ 124236
_EXECUTE 91103
AEA 90821
âĵĶ 145750
ãģĶ 47054
ÐµÑģÑĤÐ² 33934
Ġcreations 52762
}< 70793
è¿Ľåı£ 104194
_Top 94819
ĠPART 6766
ãģ«ãģĹãģ¦ 130130
à¸ķà¸¸ 124458
ĠANN 76406
æĨ 99423
è¾© 100602
.Bounds 72133
ÑĨÐ¸Ð¸ 56086
âĶİ 150067
Ġfrightened 59078
ĠPOSSIBILITY 29382
Ġprojected 27348
(aux 45875
ï±¯ 147765
ĠGujarat 61853
ippers 31897
(! 3471
à¸ģà¸¥à¸±à¸ļà¹Ħà¸Ľ 140743
Ġvisual 9124
Ġ×©×ľ×ķ 128581
((( 6636
(auto 21680
ĠGerry 90987
Trad 42834
.u 11634
Ġconvention 21277
ex 327
(ĊĊ 44611
Ġomitted 39442
ðĿĲĹ 148847
aday 64626
ĠverfÃ¼g 141436
.Contract 69465
ANGE 11503
Ġ×ľ×Ķ×Ŀ 129354
Ġtrading 11133
ãĤ· 56107
é½ĩ 123789
éģ½ 121747
_regions 58035
ApiController 68617
.Exec 30798
ĠHowell 96179
Ġcontag 63815
(paths 54728
fuse 95592
George 38952
ĠstrokeLine 77829
ãĥĹãĥŃ 126574
.System 16620
åĲ¬è¿ĩ 114056
ĠCGRect 16006
ĠTone 66904
Ġproduction 5670
é£Ľãģ³ 141458
_done 24390
âĢľIn 45133
ìĸ½ 144785
'/ 20177
Ġplanned 12909
ĠSanford 94041
Ġthrone 43621
æ³Ĳ 119757
unden 22157
è¯ĦåĪ¤ 117056
åĪ¶éĢłä¸ļ 104863
ĉWHERE 39163
åĨħç§ĳ 116298
&( 52629
naments 73815
.clients 49733
.dropout 60264
Nut 78470
modal 5667
Ġinkl 81625
æĢ»æī¿åĮħ 116392
ï»ķ 145446
esen 65935
ĠCELL 59695
-devel 64103
Ġsurpass 52020
/native 75187
Ġìĸ´ëĸ»ê²Į 130108
erte 13820
unger 71622
âĳħ 146481
Ġ×ľ×¤×¨ 143030
LOG 7243
ĠBorg 64482
<!--[ 61176
Ġthat 429
.bumptech 62830
pol 9896
ãĥķãĤ¡ãĥ¼ 140986
;"><? 64081
-webpack 58799
ÅŁtÄ±rma 126075
AGER 27650
åŃ¦ä½į 101681
ĠGratuit 53509
Ġsynd 21307
ĠìŀĲìĭłìĿĺ 134748
Kim 48336
Ġshuttle 44541
ama 3029
Ġstudying 20956
Scheme 28906
Ġenacted 43877
Ġunwrap 79813
×©×ĺ×¨ 135995
ĠRole 15404
Ġlandsc 33515
Ġinitiative 20162
Ġneighbouring 60927
ĠSupplements 91310
å¡«åħħ 115424
ĠÙħÙĦÙĬ 126993
âĢĶyou 70380
Aaron 74803
LV 40258
ï§į 147712
ÐĲÐĹ 142088
ĠSeparate 76140
_strcmp 74523
ĠnajwyÅ¼ 140760
Ġtheories 24970
ðĿĹķ 149298
ðŁ¥¶ 147360
Ġê°ĢëĬ¥ìĦ± 142724
Ġexpresses 60020
athroom 77832
eters 2424
ĉas 60451
": 788
Ġcarbs 52509
ìĹĮ 145270
à¸¸à¸¡ 125370
Ġunjust 51483
ĠKhal 51609
ãĤĴéĢļãģĹãģ¦ 143574
=./ 97183
ĠdÆ°á»¡ng 129852
.uid 24874
çĴĺ 121705
éĶ¥ 114635
Ġnegotiating 43625
è¿Ľå±ķæĥħåĨµ 118635
æĹ¥æĻļ 102884
æķ´ä½ĵ 101932
æĥ® 120796
æ°ĳæĶ¿å±Ģ 117558
ĠQE 99016
ĠHack 34982
/{ 9388
_dll 94626
*= 40008
.XPATH 88232
ULO 66507
ajÄħcy 135390
Ġelabor 24940
Ġmuchos 57206
;a 48222
å©ļåĲİ 115300
Ġpret 4410
Ġhv 22747
ïŃ½ 148365
ĠDix 75143
Ġtensor 15626
ÑĽ 144921
×´ 130015
çį²å¾Ĺ 109616
Ġbuurt 59017
çī¢åĽºæłĳç«ĭ 116306
ĠÑĤÐ¾ÑĢ 127367
metry 32242
è°ĩ 120523
ĉerror 18290
lÄ±k 91733
å±ķ 76313
çĽ¸ç»§ 107225
Ġembroid 53578
Ġ×ĳ×ł×ķ×Ĵ 143694
âĹ¤ 146825
èĮĥåĽ´åĨħ 104589
Ġmovable 82579
/category 46333
-world 30084
_reg 4920
Ġjav 1258
_čĊčĊ 89950
Ġbottoms 92550
ĠvaÌĢ 139607
ĠSSR 95304
Detector 31606
ÙĪÙģÙĬ 131975
ot 354
=============== 44908
å¹¸å¥½ 114716
])- 62770
anmar 45716
utc 28355
åĬ¨åĳĺ 106540
ixmap 24593
ĠMinistry 19640
Ġcapacity 8654
atorial 37936
Ġlooph 61476
ì±ĥ 151046
ÙĪØº 133391
å®ŀçİ° 101884
userid 20085
æīĢäº§çĶŁçļĦ 117521
éĽ¶è·Ŀç¦» 117707
ĠReminder 95902
ĠLambert 69543
Ġcerr 26878
(exports 34425
subscribe 9384
_accessible 88724
ÑģÐ¾Ð½ 135193
(world 34297
ĠMaurice 67429
ĠFuk 62659
-unused 63412
ynet 97988
ì²¯ 151050
ĠAnatomy 79182
åįģäºĶæĿ¡ 117790
Ġhygiene 51956
ÑĢÐµÐ´ 42975
Ġix 26864
ĠmÃ¡t 135614
Ġ×§×ĺ×ł×Ķ 139504
itim 126690
Org 42437
turnstile 56190
wrÃ³ciÄĩ 142216
ãĥĥ 25204
ĠArchives 37229
ĠHof 71712
å¸¦ 99278
Mag 32915
ĠIntro 51986
ĠØ§ÙĦØ¹Ø³ÙĥØ±ÙĬ 140421
ÙĥÙĨ 124218
awe 84177
xDA 92570
ĉREQUIRE 87332
ĠheiÃŁ 79536
è¿ŀç»Ń 104005
Ġpattern 5383
.music 48991
_create 8657
ĠConserv 20049
Ġsociedad 89687
foreground 34919
Ġinout 96277
Ġrealize 13083
Ġviá»ĩc 128289
ç§§ 117046
NORMAL 67979
izen 23678
ayscale 50348
oration 7614
è¢«åĳĬ 103051
ìħĺ 92031
Ġfireplace 39411
Ġpayment 8160
é©µ 122380
èİĻ 122593
Ġvente 73090
Ġgiant 14538
ãģªãģ©ãģ§ 133634
d 67
Ġhopefully 22326
à¸ļà¸Ļ 128604
!=" 32299
è©Ī 120945
Ġbs 17065
åĨľè´¸å¸Ĥåľº 116796
Ġaudience 10650
éļıæĹ¶ 102422
Ġmere 17524
æ°´çĶµ 108246
ĠJText 38555
azÄ± 131035
Ä±lÄ± 52171
Ġrevoked 64346
_losses 66162
åĲĦçķĮ 103253
ä»¥äººä¸º 110975
à¹Ģà¸ļà¸² 135788
PNG 59824
-čĊ 69127
.Before 31153
æĺİç¡®äºĨ 109329
ãģĹãģ£ 127441
Ġclimax 70195
ì¦Ŀ 128844
íĶ½ 144074
Ġdns 44077
ĠÙĦÙĦØºØ§ÙĬØ© 140538
Ġtransmit 29282
oon 9009
apollo 53610
è¿Ļä¸ªæ¸¸æĪı 113603
è´£ä»»äºº 113000
muÅŁtur 128085
Ġcommune 78145
ĠCelt 35307
_srv 63921
recv 33977
åĨľçī§ 112001
ĠLONG 33942
Ġcomme 21572
rx 12651
çįĹ 121654
"In 32603
è®©äººä»¬ 115393
åįķçº¯ 103148
ĠWorth 36146
×ķ×ķ×ľ 139724
éĽľ 116756
ØµØ§ØŃØ¨ 131633
ĠDLL 47192
ĠLowest 68530
ĠmemberId 96339
ĠaprÃ¨s 41038
ĠBitcoins 81825
Ġmills 31908
Ġboring 27759
ĠVeget 42700
Ġprioritize 62552
auen 45258
ĠDisclosure 77254
eways 69271
Ġwirk 50368
ĠIkea 74439
::~ 14252
å¯¼å¼¹ 107579
IntArray 95338
åķ¦ 104060
Ġqx 96030
è£¹ 103175
Ġ)),Ċ 39290
Bearer 26399
.flip 47125
èį¤ 119353
èİ·å¾ĹäºĨ 105067
Ġtransforms 28475
_fault 70097
bounce 64302
Initialization 61928
Ġmortgages 60898
/Error 96259
Ġgente 43042
())čĊčĊ 79189
hausen 76147
ĠLogs 54570
Good 15216
noopener 66106
_UPDATED 86048
ĠRaw 23022
ĠFFT 60036
analysis 34484
à¹Ģà¸ģà¹Īà¸ĩ 141037
×Ķ×ĸ×ĵ×ŀ×ł×ķ×ª 139411
åĲĪå½± 111885
HEY 77589
Ġ"-"Ċ 67773
Ġamused 85224
art 471
Ġenthus 16277
.UnitTesting 64731
ario 3290
ÜŁ 146845
áħ® 147986
rate 7698
×ŀ×¡×¢×ĵ 140106
ä¸īçº§ 107049
ä¸ļ 40952
ĠEvening 56102
Ġmetadata 11160
Ġfibr 94135
asured 39312
åĲĦç±» 104010
Ġcynical 69679
Ġseinen 59228
ĠÑģÐ»ÑĥÑĩÐ° 129401
leshooting 50240
×¤×Ļ×ª 127280
ä¸Ģé¡¿ 108148
áİ¬ 149571
æĮģæľī 104852
ĠØ§ÙĦÙĤØ§Ø¯ 135170
Ġded 7681
=is 92310
æħĪåĸĦ 106038
ØªÙĪØ¬ 137230
_sum 10160
é¡¹éĵ¾ 105979
.requestFocus 72580
ĠSales 15829
Ô² 148011
tran 43369
çĳĿ 123128
ÙħØ¯ÙĬØ±ÙĬØ© 143427
çĹĩçĬ¶ 101368
Ġ'-- 17304
ĠRodrigo 77768
Ġescorted 76556
//---------------------------------------------------------------------------- 18012
lÄ±ÄŁÄ±nÄ± 133182
illos 64937
çĽ®æłĩä»»åĬ¡ 113427
Ġ''; 36803
ĠsortBy 66913
×§×Ļ×Ļ×ŀ×ª 136928
Ġresidence 21682
ĠQAction 55062
æĹ¢æľī 107203
ĠNIR 98754
ðŁĺŃ 144628
_cc 28955
à¹ģà¸Ĺà¸ĩà¸ļà¸Ńà¸¥ 135812
-factor 74097
.SaveChanges 20665
Ð¾ÑģÑĤÐµÐ¹ 135852
çŃ¦ 123211
KB 29862
ĉsl 78626
wood 6660
ĠÑģÐ¾ÑĩÐµÑĤ 142151
'}). 82971
Thank 13060
Ġenviado 98572
æł¸æŁ¥ 107462
Ġsubt 41029
ĠNN 44678
Ġíķľ 61298
ÙħØ§ÙĦ 125291
-location 60870
ðŁİ´ 149926
elon 64367
Ġsorry 14589
Ġhauling 98446
ĠChÃŃ 131868
protocols 85412
placeholders 82670
-sample 83879
Ġripe 56696
_scores 27198
matches 19914
ç®ĵ 121459
ðĿĽ¼ 147566
ĠíĬ¹íŀĪ 136115
Ġavere 82825
_POLL 76820
annual 63609
ĠKohana 82673
Ġanticipating 85259
éģĩåĪ° 104011
æĮĤçīĮ 105980
Ġobsolete 46066
åīįåĪĹ 103150
arsed 18112
Ġharness 32408
å¾ħãģ¡ 135731
ĠDeath 15911
×ŀ×ķ×Ĺ 135980
ĠÑĢÐ°ÑģÐ¿ÑĢÐ¾ÑģÑĤ 140973
Ã©nergie 136348
Ġdavon 74565
ìĪ 123967
/mock 90386
Ġbesie 91628
criminal 98395
Ġnicely 28821
Ġfundra 26318
Ġtex 23112
Ġassault 11703
(Packet 92222
.NET 36515
imitive 13654
BEL 79001
upro 96101
iami 15264
Ġpoint 1459
Ġ-------------------- 90781
bindung 90226
Ġdrag 10921
Ġstumble 74137
_DIRECTION 65065
åłį 120571
Ġlasts 39658
ĠHell 23887
ĠØ£Ø¬ÙĦ 130214
Ġclarification 63684
âºŁ 151641
è¿Ľåĩº 111196
Ġ×Ĳ×¤×Ļ×ľ×ķ 131061
.widgets 36227
illustr 82618
stellung 54377
ç¦Ĭ 121325
Ġcube 23739
æ¬¤ 119687
ĠÐ¾Ð±ÑīÐµÑģÑĤÐ²ÐµÐ½Ð½Ð¾ 142219
Dup 85713
('=' 78286
rams 94701
ÐºÐ»Ð°Ð´ÑĭÐ²Ð° 138509
Lo 4262
ACE 5576
ĠAM 6769
Ġbought 10788
'],Ċ 4380
inished 24657
Ù¹ 145656
w 86
çĹĶ 120756
cio 60830
Sender 20381
olf 8095
_TAB 41708
drag 33931
ento 17537
}.${ 77197
anted 7566
odie 85349
å£²ãĤĬ 132559
ws 8915
Ġ×ł×ŀ×¦×Ĳ 129715
-one 18589
Â», 60212
çļ®éĿ© 115755
ĠØŃØ± 130630
[...]
